{
  "version": "1.0",
  "truncation": null,
  "padding": null,
  "added_tokens": [
    {
      "id": 0,
      "content": "<|pad|>",
      "single_word": false,
      "lstrip": false,
      "rstrip": false,
      "normalized": false,
      "special": true
    },
    {
      "id": 1,
      "content": "<|unk|>",
      "single_word": false,
      "lstrip": false,
      "rstrip": false,
      "normalized": false,
      "special": true
    },
    {
      "id": 2,
      "content": "<|bos|>",
      "single_word": false,
      "lstrip": false,
      "rstrip": false,
      "normalized": false,
      "special": true
    },
    {
      "id": 3,
      "content": "<|eos|>",
      "single_word": false,
      "lstrip": false,
      "rstrip": false,
      "normalized": false,
      "special": true
    },
    {
      "id": 4,
      "content": "<|user|>",
      "single_word": false,
      "lstrip": false,
      "rstrip": false,
      "normalized": false,
      "special": true
    },
    {
      "id": 5,
      "content": "<|assistant|>",
      "single_word": false,
      "lstrip": false,
      "rstrip": false,
      "normalized": false,
      "special": true
    }
  ],
  "normalizer": null,
  "pre_tokenizer": {
    "type": "ByteLevel",
    "add_prefix_space": false,
    "trim_offsets": true,
    "use_regex": true
  },
  "post_processor": {
    "type": "TemplateProcessing",
    "single": [
      {
        "SpecialToken": {
          "id": "<|bos|>",
          "type_id": 0
        }
      },
      {
        "Sequence": {
          "id": "A",
          "type_id": 0
        }
      },
      {
        "SpecialToken": {
          "id": "<|eos|>",
          "type_id": 0
        }
      }
    ],
    "pair": [
      {
        "Sequence": {
          "id": "A",
          "type_id": 0
        }
      },
      {
        "Sequence": {
          "id": "B",
          "type_id": 1
        }
      }
    ],
    "special_tokens": {
      "<|bos|>": {
        "id": "<|bos|>",
        "ids": [
          2
        ],
        "tokens": [
          "<|bos|>"
        ]
      },
      "<|eos|>": {
        "id": "<|eos|>",
        "ids": [
          3
        ],
        "tokens": [
          "<|eos|>"
        ]
      }
    }
  },
  "decoder": {
    "type": "ByteLevel",
    "add_prefix_space": true,
    "trim_offsets": true,
    "use_regex": true
  },
  "model": {
    "type": "BPE",
    "dropout": null,
    "unk_token": null,
    "continuing_subword_prefix": null,
    "end_of_word_suffix": null,
    "fuse_unk": false,
    "byte_fallback": false,
    "ignore_merges": false,
    "vocab": {
      "<|pad|>": 0,
      "<|unk|>": 1,
      "<|bos|>": 2,
      "<|eos|>": 3,
      "<|user|>": 4,
      "<|assistant|>": 5,
      "!": 6,
      "\"": 7,
      "#": 8,
      "$": 9,
      "%": 10,
      "&": 11,
      "'": 12,
      "(": 13,
      ")": 14,
      "*": 15,
      "+": 16,
      ",": 17,
      "-": 18,
      ".": 19,
      "/": 20,
      "0": 21,
      "1": 22,
      "2": 23,
      "3": 24,
      "4": 25,
      "5": 26,
      "6": 27,
      "7": 28,
      "8": 29,
      "9": 30,
      ":": 31,
      ";": 32,
      "<": 33,
      "=": 34,
      ">": 35,
      "?": 36,
      "@": 37,
      "A": 38,
      "B": 39,
      "C": 40,
      "D": 41,
      "E": 42,
      "F": 43,
      "G": 44,
      "H": 45,
      "I": 46,
      "J": 47,
      "K": 48,
      "L": 49,
      "M": 50,
      "N": 51,
      "O": 52,
      "P": 53,
      "Q": 54,
      "R": 55,
      "S": 56,
      "T": 57,
      "U": 58,
      "V": 59,
      "W": 60,
      "X": 61,
      "Y": 62,
      "Z": 63,
      "[": 64,
      "\\": 65,
      "]": 66,
      "^": 67,
      "_": 68,
      "`": 69,
      "a": 70,
      "b": 71,
      "c": 72,
      "d": 73,
      "e": 74,
      "f": 75,
      "g": 76,
      "h": 77,
      "i": 78,
      "j": 79,
      "k": 80,
      "l": 81,
      "m": 82,
      "n": 83,
      "o": 84,
      "p": 85,
      "q": 86,
      "r": 87,
      "s": 88,
      "t": 89,
      "u": 90,
      "v": 91,
      "w": 92,
      "x": 93,
      "y": 94,
      "z": 95,
      "{": 96,
      "|": 97,
      "}": 98,
      "~": 99,
      "¡": 100,
      "¢": 101,
      "£": 102,
      "¤": 103,
      "¥": 104,
      "¦": 105,
      "§": 106,
      "¨": 107,
      "©": 108,
      "ª": 109,
      "«": 110,
      "¬": 111,
      "®": 112,
      "¯": 113,
      "°": 114,
      "±": 115,
      "²": 116,
      "³": 117,
      "´": 118,
      "µ": 119,
      "¶": 120,
      "·": 121,
      "¸": 122,
      "¹": 123,
      "º": 124,
      "»": 125,
      "¼": 126,
      "½": 127,
      "¾": 128,
      "¿": 129,
      "Â": 130,
      "Ã": 131,
      "Ä": 132,
      "Å": 133,
      "Æ": 134,
      "Ç": 135,
      "È": 136,
      "É": 137,
      "Ê": 138,
      "Ë": 139,
      "Ì": 140,
      "Í": 141,
      "Î": 142,
      "Ï": 143,
      "Ð": 144,
      "Ñ": 145,
      "Ò": 146,
      "Ó": 147,
      "Õ": 148,
      "Ö": 149,
      "×": 150,
      "Ø": 151,
      "Ù": 152,
      "Ú": 153,
      "Û": 154,
      "Ü": 155,
      "à": 156,
      "á": 157,
      "â": 158,
      "ã": 159,
      "ä": 160,
      "å": 161,
      "æ": 162,
      "ç": 163,
      "è": 164,
      "é": 165,
      "ê": 166,
      "ë": 167,
      "ì": 168,
      "í": 169,
      "î": 170,
      "ï": 171,
      "ð": 172,
      "ó": 173,
      "Ċ": 174,
      "Ġ": 175,
      "ġ": 176,
      "Ģ": 177,
      "ģ": 178,
      "Ĥ": 179,
      "ĥ": 180,
      "Ħ": 181,
      "ħ": 182,
      "Ĩ": 183,
      "ĩ": 184,
      "Ī": 185,
      "ī": 186,
      "Ĭ": 187,
      "ĭ": 188,
      "Į": 189,
      "į": 190,
      "İ": 191,
      "ı": 192,
      "Ĳ": 193,
      "ĳ": 194,
      "Ĵ": 195,
      "ĵ": 196,
      "Ķ": 197,
      "ķ": 198,
      "ĸ": 199,
      "Ĺ": 200,
      "ĺ": 201,
      "Ļ": 202,
      "ļ": 203,
      "Ľ": 204,
      "ľ": 205,
      "Ŀ": 206,
      "ŀ": 207,
      "Ł": 208,
      "ł": 209,
      "Ń": 210,
      "Ġt": 211,
      "Ġa": 212,
      "he": 213,
      "in": 214,
      "re": 215,
      "Ġthe": 216,
      "on": 217,
      "er": 218,
      "Ġs": 219,
      "Ġw": 220,
      "at": 221,
      "Ġo": 222,
      "en": 223,
      "Ġc": 224,
      "it": 225,
      "is": 226,
      "an": 227,
      "or": 228,
      "Ġb": 229,
      "es": 230,
      "ed": 231,
      "Ġf": 232,
      "ing": 233,
      "Ġp": 234,
      "ou": 235,
      "Ġan": 236,
      "al": 237,
      "Ġto": 238,
      "ar": 239,
      "Ġm": 240,
      "Ġin": 241,
      "Ġof": 242,
      "Ġd": 243,
      "Ġh": 244,
      "as": 245,
      "âĢ": 246,
      "Ġand": 247,
      "ic": 248,
      "Ġth": 249,
      "le": 250,
      "om": 251,
      "ion": 252,
      "ent": 253,
      "ll": 254,
      "Ġn": 255,
      "Ġl": 256,
      "Ġre": 257,
      "st": 258,
      "ve": 259,
      "Ġe": 260,
      "ly": 261,
      "ro": 262,
      "Ġbe": 263,
      "Ġg": 264,
      "id": 265,
      "ut": 266,
      "ac": 267,
      "ot": 268,
      "ĠT": 269,
      "ĠI": 270,
      "Ġon": 271,
      "Ġthat": 272,
      "ay": 273,
      "Ġis": 274,
      "ĠS": 275,
      "im": 276,
      "et": 277,
      "am": 278,
      "ow": 279,
      "ad": 280,
      "se": 281,
      "ig": 282,
      "Ġfor": 283,
      "âĢĻ": 284,
      "ĠA": 285,
      "ver": 286,
      "ur": 287,
      "ct": 288,
      "ld": 289,
      "ĠC": 290,
      "Ġu": 291,
      "Ġst": 292,
      "Ġy": 293,
      "Ġit": 294,
      "Ġhe": 295,
      "ir": 296,
      "ation": 297,
      "ith": 298,
      "Ġwh": 299,
      "ĠM": 300,
      "ce": 301,
      "ter": 302,
      "ol": 303,
      "Ġwe": 304,
      "il": 305,
      "Ġwith": 306,
      "Ġas": 307,
      "ĠB": 308,
      "ch": 309,
      "ill": 310,
      "nd": 311,
      "Ġyou": 312,
      "ĠP": 313,
      "Ġwas": 314,
      "ers": 315,
      "ke": 316,
      "ĠâĢ": 317,
      "Ġcon": 318,
      "Ġde": 319,
      "Ġr": 320,
      "her": 321,
      "if": 322,
      "ate": 323,
      "Ġat": 324,
      "ag": 325,
      "Ġha": 326,
      "ĠW": 327,
      "Ġse": 328,
      "ore": 329,
      "ĠH": 330,
      "Ġpro": 331,
      "ul": 332,
      "pp": 333,
      "ment": 334,
      "ri": 335,
      "ĠD": 336,
      "Ġare": 337,
      "est": 338,
      "Ġ1": 339,
      "Ġcom": 340,
      "and": 341,
      "us": 342,
      "ist": 343,
      "ain": 344,
      "op": 345,
      "ĠThe": 346,
      "Ġ2": 347,
      "ĠR": 348,
      "igh": 349,
      "rom": 350,
      "th": 351,
      "Ġ(": 352,
      "od": 353,
      "ĠF": 354,
      "Ġne": 355,
      "un": 356,
      "um": 357,
      "Ġex": 358,
      "ab": 359,
      "res": 360,
      "âĢĿ": 361,
      "Ġnot": 362,
      "Ġv": 363,
      "ĠN": 364,
      "ess": 365,
      "Ġhave": 366,
      "ould": 367,
      "ity": 368,
      "em": 369,
      "Ġor": 370,
      "ort": 371,
      "Ġby": 372,
      "os": 373,
      "ant": 374,
      "ĠG": 375,
      "ive": 376,
      "Ġal": 377,
      "Ġfrom": 378,
      "el": 379,
      "oc": 380,
      "'s": 381,
      "art": 382,
      "Ġsu": 383,
      "Ġsh": 384,
      "ĠL": 385,
      "Ġthis": 386,
      "nt": 387,
      "qu": 388,
      "ight": 389,
      "pe": 390,
      "ust": 391,
      "Ġle": 392,
      "ies": 393,
      "end": 394,
      "Ġsa": 395,
      "ĠE": 396,
      "Ġch": 397,
      "out": 398,
      "The": 399,
      "Ġab": 400,
      "ie": 401,
      "all": 402,
      "ack": 403,
      "00": 404,
      "red": 405,
      "Ġhas": 406,
      "ĠâĢľ": 407,
      "ally": 408,
      "ĠJ": 409,
      "Ġpl": 410,
      "Ġgo": 411,
      "ard": 412,
      "iv": 413,
      "Ġhis": 414,
      "ome": 415,
      "ost": 416,
      "gh": 417,
      "ĠO": 418,
      "ear": 419,
      "ra": 420,
      "our": 421,
      "ast": 422,
      "Ġj": 423,
      "ud": 424,
      "ak": 425,
      "Ġwor": 426,
      "Ġdo": 427,
      "rou": 428,
      "Ġthey": 429,
      "Ġbut": 430,
      "Ġcan": 431,
      "Ġsaid": 432,
      "ge": 433,
      "Ġwill": 434,
      "Ġwhe": 435,
      "pt": 436,
      "ĠU": 437,
      "Ġk": 438,
      "ok": 439,
      "ich": 440,
      "Ġall": 441,
      "Ġ\"": 442,
      "Ġwho": 443,
      "ide": 444,
      "Ġtr": 445,
      "Ġint": 446,
      "ame": 447,
      "ans": 448,
      "Ġout": 449,
      "ther": 450,
      "ial": 451,
      "pl": 452,
      "ff": 453,
      "Ġtheir": 454,
      "ong": 455,
      "ect": 456,
      "ice": 457,
      "Ġmore": 458,
      "ure": 459,
      "one": 460,
      "age": 461,
      "Ġme": 462,
      "ike": 463,
      "act": 464,
      "Ġup": 465,
      "ions": 466,
      "ous": 467,
      "ine": 468,
      "Ġad": 469,
      "ap": 470,
      "Ġabout": 471,
      "ber": 472,
      "ated": 473,
      "Ġone": 474,
      "og": 475,
      "Ġus": 476,
      "Ġso": 477,
      "ime": 478,
      "Ġwere": 479,
      "ep": 480,
      "ĠK": 481,
      "Ġhad": 482,
      "ia": 483,
      "Ġ20": 484,
      "ub": 485,
      "Ġcl": 486,
      "are": 487,
      "cc": 488,
      "Ġwould": 489,
      "Ġim": 490,
      "ind": 491,
      "Ġwhich": 492,
      "Ġcont": 493,
      "ue": 494,
      "iz": 495,
      "ake": 496,
      "very": 497,
      "Ġag": 498,
      "Ġte": 499,
      "Ġcomp": 500,
      "Ġbeen": 501,
      "Ġoff": 502,
      "Ġun": 503,
      "per": 504,
      "Ġen": 505,
      "so": 506,
      "au": 507,
      "ĠTh": 508,
      "ign": 509,
      "ĠSt": 510,
      "ace": 511,
      "ary": 512,
      "ip": 513,
      "Ġyear": 514,
      "ew": 515,
      "Ġlike": 516,
      "ven": 517,
      "ook": 518,
      "ere": 519,
      "ays": 520,
      "Ġinc": 521,
      "Ġpe": 522,
      "Ġman": 523,
      "ose": 524,
      "ry": 525,
      "Ġper": 526,
      "able": 527,
      "ite": 528,
      "Ġres": 529,
      "ord": 530,
      "Ġsp": 531,
      "ass": 532,
      "Ġother": 533,
      "ĠIn": 534,
      "mer": 535,
      "ire": 536,
      "Ġ201": 537,
      "Ġsome": 538,
      "ence": 539,
      "ople": 540,
      "ib": 541,
      "ile": 542,
      "ks": 543,
      "ical": 544,
      "Ġthere": 545,
      "Ġover": 546,
      "ress": 547,
      "ult": 548,
      "Ġdis": 549,
      "ations": 550,
      "Ġnew": 551,
      "ru": 552,
      "int": 553,
      "Ġthan": 554,
      "Ġalso": 555,
      "own": 556,
      "ance": 557,
      "Ġbec": 558,
      "Ġar": 559,
      "ount": 560,
      "Ġthem": 561,
      "ough": 562,
      "Ġyour": 563,
      "port": 564,
      "Ġapp": 565,
      "Ġsc": 566,
      "Ġwhen": 567,
      "Ġwhat": 568,
      "Ġpart": 569,
      "ond": 570,
      "Ġpeople": 571,
      "ree": 572,
      "orm": 573,
      "Ġqu": 574,
      "fter": 575,
      "ase": 576,
      "av": 577,
      "Ġjust": 578,
      "Ġany": 579,
      "ail": 580,
      "ĠY": 581,
      "ĠCh": 582,
      "ach": 583,
      "Ġits": 584,
      "Ġkn": 585,
      "Ġtime": 586,
      "Ġmy": 587,
      "ĠIt": 588,
      "Ġher": 589,
      "Ġrec": 590,
      "Ġ3": 591,
      "lic": 592,
      "Ġget": 593,
      "Ġif": 594,
      "reat": 595,
      "ens": 596,
      "ound": 597,
      "Ġinto": 598,
      ".âĢĿ": 599,
      "Ġwork": 600,
      "Ġtw": 601,
      "irst": 602,
      "ĠV": 603,
      "du": 604,
      "Ġno": 605,
      "ian": 606,
      "vel": 607,
      "ings": 608,
      "ction": 609,
      "ory": 610,
      "ick": 611,
      "ition": 612,
      "Ġour": 613,
      "ident": 614,
      "ors": 615,
      "ob": 616,
      "Ġpre": 617,
      "ove": 618,
      "ang": 619,
      "wn": 620,
      "ink": 621,
      "ause": 622,
      "ates": 623,
      "Ġplay": 624,
      "hing": 625,
      "ade": 626,
      "amp": 627,
      "te": 628,
      "Ġpol": 629,
      "Ġ-": 630,
      "Ġro": 631,
      "ark": 632,
      "Ġshe": 633,
      "vers": 634,
      "Ġcould": 635,
      ",âĢĿ": 636,
      "Ġafter": 637,
      "Ġco": 638,
      "Ġhow": 639,
      "ĠHe": 640,
      "Ġfirst": 641,
      "ne": 642,
      "nder": 643,
      "Ġhim": 644,
      "ons": 645,
      "'t": 646,
      "Ġacc": 647,
      "ious": 648,
      "aw": 649,
      "ild": 650,
      "Ġpo": 651,
      "Ġ19": 652,
      "ict": 653,
      "Ġatt": 654,
      "Ġonly": 655,
      "Ġfe": 656,
      "hed": 657,
      "Ġpr": 658,
      "Ġtwo": 659,
      "ish": 660,
      "Ġbl": 661,
      "ov": 662,
      "rit": 663,
      "Ġspe": 664,
      "Ġcomm": 665,
      "form": 666,
      "erv": 667,
      "we": 668,
      "âĢľ": 669,
      "Ġact": 670,
      ".\"": 671,
      "Ġbet": 672,
      "ft": 673,
      "ck": 674,
      "Ġback": 675,
      "ning": 676,
      "Ġmost": 677,
      "ces": 678,
      "ood": 679,
      "Ġdec": 680,
      "Ġam": 681,
      "oy": 682,
      "ater": 683,
      "round": 684,
      "rough": 685,
      "iff": 686,
      "Ġdid": 687,
      "ĠâĢĵ": 688,
      "Ġ4": 689,
      "Ġagain": 690,
      "day": 691,
      "Ġunder": 692,
      "ise": 693,
      "Ġdes": 694,
      "ĠâĢĶ": 695,
      "ual": 696,
      "Ġcons": 697,
      "Ġwant": 698,
      "sel": 699,
      "ull": 700,
      "Ġbecause": 701,
      "Ġnow": 702,
      "ublic": 703,
      "man": 704,
      "ents": 705,
      "Ġneed": 706,
      "Ġknow": 707,
      "Ġeven": 708,
      "Ġyears": 709,
      "lud": 710,
      "ec": 711,
      ",\"": 712,
      "tern": 713,
      "Ġsee": 714,
      "Ġadd": 715,
      "Ġinv": 716,
      "ĠWe": 717,
      "ments": 718,
      "Ġ$": 719,
      "iss": 720,
      "ced": 721,
      "old": 722,
      "Ġind": 723,
      "ting": 724,
      "..": 725,
      "fore": 726,
      "Ġsec": 727,
      "urn": 728,
      "uch": 729,
      "Ġevery": 730,
      "Ġem": 731,
      "Ġ5": 732,
      "Ġsupp": 733,
      "ock": 734,
      "Ġmake": 735,
      "pect": 736,
      "oll": 737,
      "Ġthese": 738,
      "ĠUn": 739,
      "--": 740,
      "ject": 741,
      "Ġwhere": 742,
      "ph": 743,
      "xt": 744,
      "vern": 745,
      "In": 746,
      "ational": 747,
      "Ġ[": 748,
      "Ġbu": 749,
      "ĠAnd": 750,
      "Ġlook": 751,
      "Ġdon": 752,
      "Th": 753,
      "Ġway": 754,
      "oss": 755,
      "Ġrem": 756,
      "ating": 757,
      "Ġmay": 758,
      "Ġev": 759,
      "row": 760,
      "ump": 761,
      "lect": 762,
      "Ġright": 763,
      "Ġbeing": 764,
      "Ġfl": 765,
      "Ġdiff": 766,
      "ng": 767,
      "ason": 768,
      "Ġthen": 769,
      "ont": 770,
      "Ġmany": 771,
      "ily": 772,
      "iew": 773,
      "ĠBut": 774,
      "Ġdef": 775,
      "Ġcall": 776,
      "ased": 777,
      "ĠTr": 778,
      "ied": 779,
      "Ġthink": 780,
      "aking": 781,
      "Ġimp": 782,
      "rib": 783,
      "Ġinclud": 784,
      "Ġrel": 785,
      ").": 786,
      "Ġlast": 787,
      "meric": 788,
      "Ġthrough": 789,
      "Ġsy": 790,
      "Ġshould": 791,
      "Ġsay": 792,
      "Ġreg": 793,
      "ty": 794,
      "ower": 795,
      "Ġpres": 796,
      "ited": 797,
      "other": 798,
      "ath": 799,
      "uring": 800,
      "Ġmuch": 801,
      "Ġvery": 802,
      "Ġthose": 803,
      "les": 804,
      "ell": 805,
      "ative": 806,
      "ific": 807,
      "Ġshow": 808,
      "ĠThis": 809,
      "ities": 810,
      "Ġ200": 811,
      "tle": 812,
      "Ġbr": 813,
      "Ġph": 814,
      "Ġstate": 815,
      "ss": 816,
      "oth": 817,
      "ĠWh": 818,
      "Ġwell": 819,
      "hen": 820,
      "arg": 821,
      "Ġuse": 822,
      "Ġdown": 823,
      "Ġend": 824,
      "Ġdoes": 825,
      "Ġbel": 826,
      "Ġown": 827,
      "als": 828,
      "Ġass": 829,
      "und": 830,
      "Ġcount": 831,
      "ange": 832,
      "arly": 833,
      "ts": 834,
      "ters": 835,
      "omet": 836,
      "Ġbefore": 837,
      "ics": 838,
      "Ġgovern": 839,
      "ince": 840,
      "Ġlong": 841,
      "ĠAmeric": 842,
      "ward": 843,
      "Ġmon": 844,
      "com": 845,
      "ues": 846,
      "Ġreport": 847,
      "ible": 848,
      "Ġstart": 849,
      "ble": 850,
      "Ġke": 851,
      "ram": 852,
      "up": 853,
      "olog": 854,
      "ĠNew": 855,
      "),": 856,
      "ife": 857,
      "Ġfin": 858,
      "Ġmade": 859,
      "Ġstud": 860,
      "âĢĶ": 861,
      "erson": 862,
      "ren": 863,
      "ener": 864,
      "Ġteam": 865,
      "Ġsm": 866,
      "ix": 867,
      "Ġgoing": 868,
      "Ġsuch": 869,
      "ility": 870,
      "oun": 871,
      "Ġac": 872,
      "Ġhel": 873,
      "ek": 874,
      "ful": 875,
      "Ġworld": 876,
      "ms": 877,
      "its": 878,
      "ually": 879,
      "ert": 880,
      "Ġgood": 881,
      "Ġsub": 882,
      "ists": 883,
      "Ġsur": 884,
      "Ġ6": 885,
      "Ġgu": 886,
      "It": 887,
      "ork": 888,
      "Ġagainst": 889,
      "Ġpoint": 890,
      "ars": 891,
      "ys": 892,
      "Ġeff": 893,
      "Ġset": 894,
      "ier": 895,
      "Ġstill": 896,
      "Ġgame": 897,
      "ax": 898,
      "Ġent": 899,
      "stem": 900,
      "Ġmin": 901,
      "000": 902,
      "roup": 903,
      "gan": 904,
      "Ġhelp": 905,
      "Ġwhile": 906,
      "Ġlead": 907,
      "Ġprov": 908,
      "Ġsays": 909,
      "ank": 910,
      "io": 911,
      "cy": 912,
      "ween": 913,
      "imes": 914,
      "Ġprodu": 915,
      "Ġsim": 916,
      "ism": 917,
      "alk": 918,
      "Ġob": 919,
      "ef": 920,
      "illion": 921,
      "Ġstr": 922,
      "cess": 923,
      "Ġcol": 924,
      "arch": 925,
      "Ġinter": 926,
      "self": 927,
      "Ġtake": 928,
      "Ġinst": 929,
      "ures": 930,
      "Ġdiffere": 931,
      "ollow": 932,
      "Ġconf": 933,
      "Ġthough": 934,
      "Ġbetween": 935,
      "Ġsame": 936,
      "air": 937,
      "Ġed": 938,
      "ah": 939,
      "ever": 940,
      "Ġop": 941,
      "Ġgovernment": 942,
      "Ġhigh": 943,
      "Ġdisc": 944,
      "Ġoffic": 945,
      "Ġnum": 946,
      "read": 947,
      "ool": 948,
      "cent": 949,
      "gg": 950,
      "land": 951,
      "Ġlaw": 952,
      "led": 953,
      "Ġcr": 954,
      "Ġsign": 955,
      "ution": 956,
      "way": 957,
      "Ġ0": 958,
      "Ġsomet": 959,
      "ĠRe": 960,
      "Ġmed": 961,
      "atch": 962,
      "uss": 963,
      "ner": 964,
      "Ġter": 965,
      "hes": 966,
      "any": 967,
      "We": 968,
      "Ġret": 969,
      "hip": 970,
      "Ġtrans": 971,
      "Ġser": 972,
      "Ġrun": 973,
      "Ġins": 974,
      "Ġaround": 975,
      "ouse": 976,
      "ĠAl": 977,
      "Ġfound": 978,
      "ten": 979,
      "ives": 980,
      "velop": 981,
      "Ġmem": 982,
      "ames": 983,
      "Ġref": 984,
      "Ġused": 985,
      "ather": 986,
      "con": 987,
      "Ġ10": 988,
      "Ġhere": 989,
      "ĠYou": 990,
      "ĠAr": 991,
      "az": 992,
      "Ġthree": 993,
      "ved": 994,
      "oot": 995,
      "Ġexp": 996,
      "Ġreal": 997,
      "ci": 998,
      "Ġsystem": 999,
      "Ġhand": 1000,
      "ets": 1001,
      "Ġsupport": 1002,
      "cept": 1003,
      "Ġreally": 1004,
      "ving": 1005,
      "Ġgroup": 1006,
      "ale": 1007,
      "ins": 1008,
      "Ġgr": 1009,
      "ĠLe": 1010,
      "Ġcour": 1011,
      "ave": 1012,
      "ying": 1013,
      "Ġmod": 1014,
      "Ġspec": 1015,
      "Ġpublic": 1016,
      "alth": 1017,
      "Ġ7": 1018,
      "Ġsl": 1019,
      "ense": 1020,
      "Ġcar": 1021,
      "ton": 1022,
      "ĠTrump": 1023,
      "pr": 1024,
      "Ġgreat": 1025,
      "ted": 1026,
      "ern": 1027,
      "Ġext": 1028,
      "Ġcur": 1029,
      "Ġexper": 1030,
      "Ġwom": 1031,
      "Ġfind": 1032,
      "ĠCom": 1033,
      "irect": 1034,
      ".[": 1035,
      "Ġboth": 1036,
      "ĠThey": 1037,
      "Ġday": 1038,
      "Ġfam": 1039,
      "Ġfact": 1040,
      "ĠIs": 1041,
      "Ġdet": 1042,
      "ĠSh": 1043,
      "Ġhapp": 1044,
      "Ġlit": 1045,
      "min": 1046,
      "Ġrep": 1047,
      "Ġread": 1048,
      "ices": 1049,
      "Ġbig": 1050,
      "ered": 1051,
      "oh": 1052,
      "ular": 1053,
      "ivers": 1054,
      "Ġduring": 1055,
      "uth": 1056,
      "the": 1057,
      "Ġfr": 1058,
      "Ġperson": 1059,
      "ared": 1060,
      "Ġserv": 1061,
      "Ġmonth": 1062,
      "Ġcre": 1063,
      "ĠCl": 1064,
      "Ġprog": 1065,
      "Ġfollow": 1066,
      "ision": 1067,
      "ex": 1068,
      "Ġtold": 1069,
      "ĠAs": 1070,
      "Ġsince": 1071,
      "ically": 1072,
      "Ġiss": 1073,
      "ines": 1074,
      "Ġ8": 1075,
      "Ġdevelop": 1076,
      "anc": 1077,
      "get": 1078,
      "Ġleg": 1079,
      "med": 1080,
      "Ġweek": 1081,
      "Ġwar": 1082,
      "Ġcent": 1083,
      "akes": 1084,
      "ages": 1085,
      "ata": 1086,
      "ash": 1087,
      "ording": 1088,
      "Ġpolit": 1089,
      "aj": 1090,
      "ves": 1091,
      "Ġfew": 1092,
      "ĠSe": 1093,
      "ric": 1094,
      "Ġlot": 1095,
      "Ġexpl": 1096,
      "ized": 1097,
      "Wh": 1098,
      "Ġbelie": 1099,
      "Ġtoo": 1100,
      "Ġopp": 1101,
      "Ġcontin": 1102,
      "Ġfil": 1103,
      "bers": 1104,
      "rent": 1105,
      "Ġprot": 1106,
      "iet": 1107,
      "der": 1108,
      "Ġ9": 1109,
      "Ġsomething": 1110,
      "Ġput": 1111,
      "Ġgener": 1112,
      "Ġrequ": 1113,
      "ention": 1114,
      "tt": 1115,
      "ĠIf": 1116,
      "ĠDe": 1117,
      "Ġ'": 1118,
      "Ġanother": 1119,
      "Ġinf": 1120,
      "Ġrele": 1121,
      "Ġresp": 1122,
      "20": 1123,
      "ient": 1124,
      "Ġ.": 1125,
      "ute": 1126,
      "Ġche": 1127,
      "Ġdifferent": 1128,
      "Ġcle": 1129,
      "Ġloc": 1130,
      "Ġmet": 1131,
      "Ġlife": 1132,
      "Ġfar": 1133,
      "Ġthings": 1134,
      "uc": 1135,
      "ness": 1136,
      "arl": 1137,
      "ik": 1138,
      "Ġcor": 1139,
      "chool": 1140,
      "ody": 1141,
      "Ġpower": 1142,
      "ience": 1143,
      "thing": 1144,
      "Ġcommun": 1145,
      "Ġinvest": 1146,
      "Ġposs": 1147,
      "Ġcamp": 1148,
      "ross": 1149,
      "Ġhead": 1150,
      "Ġdep": 1151,
      "ox": 1152,
      "Ġvot": 1153,
      "Ġmight": 1154,
      "Ġeach": 1155,
      "Ġplan": 1156,
      "Ġnever": 1157,
      "Ġpass": 1158,
      "arge": 1159,
      "ĠFr": 1160,
      "This": 1161,
      "Ġsoc": 1162,
      "Ġart": 1163,
      "__": 1164,
      "view": 1165,
      "Ġsecond": 1166,
      "erest": 1167,
      "Ġask": 1168,
      "iness": 1169,
      "ize": 1170,
      "Ġdem": 1171,
      "rat": 1172,
      "Ġgot": 1173,
      "Ġchild": 1174,
      "Ġnext": 1175,
      "Ġcome": 1176,
      "Ġadv": 1177,
      "Ġquest": 1178,
      "Ġbus": 1179,
      "Ġbest": 1180,
      "ĠâĢĺ": 1181,
      "Ġmark": 1182,
      "ĠFor": 1183,
      "ital": 1184,
      "ants": 1185,
      "Ġopen": 1186,
      "ield": 1187,
      "Ġpercent": 1188,
      "ĠThat": 1189,
      "ĠAn": 1190,
      "Ġallow": 1191,
      "nce": 1192,
      "ug": 1193,
      "cl": 1194,
      "ĠPro": 1195,
      "Ġseem": 1196,
      "Ġfeel": 1197,
      "ple": 1198,
      "Ġincre": 1199,
      "Ġcontro": 1200,
      "Ġpost": 1201,
      "Ġhome": 1202,
      "Ġpri": 1203,
      "ĠUS": 1204,
      "ĠRep": 1205,
      "ired": 1206,
      "Ġdist": 1207,
      "Ġdirect": 1208,
      "leg": 1209,
      "Ġcare": 1210,
      "Ġca": 1211,
      "Ġwithout": 1212,
      "orn": 1213,
      "ration": 1214,
      "Ġhard": 1215,
      "osed": 1216,
      "Ġimport": 1217,
      "less": 1218,
      "conom": 1219,
      "Ġplace": 1220,
      "Ġav": 1221,
      "Ġproble": 1222,
      "Ġresult": 1223,
      "Ġcomple": 1224,
      "son": 1225,
      "chn": 1226,
      "ral": 1227,
      "Ġide": 1228,
      "ately": 1229,
      "Ġinform": 1230,
      "Ġincluding": 1231,
      "Ġhum": 1232,
      "riend": 1233,
      "co": 1234,
      "ways": 1235,
      "gy": 1236,
      "Ġbuild": 1237,
      "Ġnumber": 1238,
      "ret": 1239,
      "Ġgl": 1240,
      "Ġmillion": 1241,
      "ĠBl": 1242,
      "Ġtop": 1243,
      "Ġcountry": 1244,
      "aim": 1245,
      "Ġfour": 1246,
      "Ġstand": 1247,
      "Ġel": 1248,
      "ably": 1249,
      "oney": 1250,
      "uro": 1251,
      "ĠInd": 1252,
      "Ġlet": 1253,
      "Ġbetter": 1254,
      "ished": 1255,
      "Ġless": 1256,
      "Ġ=": 1257,
      "ained": 1258,
      "Ġtra": 1259,
      "10": 1260,
      "Ġturn": 1261,
      "Ġmov": 1262,
      "arn": 1263,
      "But": 1264,
      "Ġlittle": 1265,
      "ption": 1266,
      "ract": 1267,
      "Ġrecent": 1268,
      "Ġpartic": 1269,
      "ains": 1270,
      "Ġtri": 1271,
      "Ġseason": 1272,
      "Ġcalled": 1273,
      "Ġappro": 1274,
      "Ġinterest": 1275,
      "line": 1276,
      "ised": 1277,
      "Ġbro": 1278,
      "ency": 1279,
      "ling": 1280,
      "ead": 1281,
      "ama": 1282,
      "Ġcase": 1283,
      "Ġbeh": 1284,
      "Ġrest": 1285,
      "Ġattack": 1286,
      "ĠThere": 1287,
      "Ġmil": 1288,
      "ode": 1289,
      "Ġkeep": 1290,
      "Ġmove": 1291,
      "Ġpop": 1292,
      "ering": 1293,
      "Ġann": 1294,
      "Ġpolice": 1295,
      "Ġleft": 1296,
      "Ġfull": 1297,
      "Ġprogram": 1298,
      "me": 1299,
      "Ġpay": 1300,
      "Ġdidn": 1301,
      "ajor": 1302,
      "ĠZ": 1303,
      "Ġval": 1304,
      "Ġdata": 1305,
      "ina": 1306,
      "----": 1307,
      "Ġusing": 1308,
      "Ġconc": 1309,
      "Ġprev": 1310,
      "Ġeconom": 1311,
      "ature": 1312,
      "Ġmain": 1313,
      "be": 1314,
      "Ġeffect": 1315,
      "pped": 1316,
      "ertain": 1317,
      "Ġlevel": 1318,
      "Ġtest": 1319,
      "Ġform": 1320,
      "Ġnews": 1321,
      "Ġfun": 1322,
      "uck": 1323,
      "Ġsit": 1324,
      "wit": 1325,
      "Ġpos": 1326,
      "inal": 1327,
      "ology": 1328,
      "ann": 1329,
      "Ġwrit": 1330,
      "iving": 1331,
      "to": 1332,
      "ready": 1333,
      "ĠAmerican": 1334,
      "ploy": 1335,
      "Ġsmall": 1336,
      "Ġwin": 1337,
      "Ġchange": 1338,
      "ined": 1339,
      "ron": 1340,
      "He": 1341,
      "Ġeas": 1342,
      "mit": 1343,
      "Ġmat": 1344,
      "Ġcap": 1345,
      "Ġlist": 1346,
      "ird": 1347,
      "Ġprocess": 1348,
      "Ġwomen": 1349,
      "Ġpresident": 1350,
      "ided": 1351,
      "Ġclass": 1352,
      "Ġschool": 1353,
      "Ġchar": 1354,
      "ruct": 1355,
      "ians": 1356,
      "ĠSo": 1357,
      "Ġrece": 1358,
      "reen": 1359,
      "Ġcompany": 1360,
      "Ġty": 1361,
      "Ġalways": 1362,
      "ger": 1363,
      "Ġprom": 1364,
      "orth": 1365,
      "'re": 1366,
      "Ġsol": 1367,
      "Ġcurrent": 1368,
      "Ġalready": 1369,
      "Ġdri": 1370,
      "Ġhist": 1371,
      "ĠQ": 1372,
      "Ġwhy": 1373,
      "ĠOb": 1374,
      "Ġtechn": 1375,
      "ĠUnited": 1376,
      "ases": 1377,
      "iversity": 1378,
      "used": 1379,
      "ĠHow": 1380,
      "Ġjob": 1381,
      "Ġbusiness": 1382,
      "ohn": 1383,
      "aining": 1384,
      "Ġunt": 1385,
      "Ġthing": 1386,
      "Ġhealth": 1387,
      "Ġbre": 1388,
      "Ġlater": 1389,
      "stand": 1390,
      "iver": 1391,
      "Ġmoney": 1392,
      "Ġbo": 1393,
      "Ġexpect": 1394,
      "Ġinformation": 1395,
      "aign": 1396,
      "Ġstory": 1397,
      "Ġrese": 1398,
      "Ġcity": 1399,
      "...": 1400,
      "urs": 1401,
      "Ġable": 1402,
      "Ġclaim": 1403,
      "here": 1404,
      "iven": 1405,
      "Ġproject": 1406,
      "Ġ--": 1407,
      "ĠBe": 1408,
      "Ġchang": 1409,
      "Ġorgan": 1410,
      "ĠPh": 1411,
      "Ġmajor": 1412,
      "ĠAd": 1413,
      "Ġprof": 1414,
      "Ġtalk": 1415,
      "Ġbook": 1416,
      "ĠShe": 1417,
      "Ġpast": 1418,
      "Ġaway": 1419,
      "Ġpat": 1420,
      "ample": 1421,
      "Ġofficial": 1422,
      "Ġmust": 1423,
      "Ġdesign": 1424,
      "Ġvis": 1425,
      "Ġfree": 1426,
      "Ġest": 1427,
      "sc": 1428,
      "Ġsk": 1429,
      "Ġimportant": 1430,
      "ured": 1431,
      "ards": 1432,
      "outh": 1433,
      "Ġcost": 1434,
      "St": 1435,
      "Ġoper": 1436,
      "Ġold": 1437,
      "ending": 1438,
      "Ġdoesn": 1439,
      "Ġ18": 1440,
      "acy": 1441,
      "ural": 1442,
      "ior": 1443,
      "urity": 1444,
      "lection": 1445,
      "Ġgrow": 1446,
      "rist": 1447,
      "ission": 1448,
      "Ġleast": 1449,
      "Ġtell": 1450,
      "app": 1451,
      "ury": 1452,
      "Ġstre": 1453,
      "uthor": 1454,
      "Ġhappen": 1455,
      "ides": 1456,
      "Ġ12": 1457,
      "Ġvar": 1458,
      "Ġaff": 1459,
      "Ġhop": 1460,
      "ider": 1461,
      "els": 1462,
      "Ġcame": 1463,
      "Ġkill": 1464,
      "Ġmen": 1465,
      "Ġtax": 1466,
      "Ġcampaign": 1467,
      "Ġedit": 1468,
      "side": 1469,
      "Ġrecord": 1470,
      "Ġpolic": 1471,
      "ĠSp": 1472,
      "Ġkind": 1473,
      "Ġmaking": 1474,
      "âĢ¦": 1475,
      "Ġelect": 1476,
      "eral": 1477,
      "Ġdays": 1478,
      "ps": 1479,
      "Ġfriend": 1480,
      "Ġenough": 1481,
      "resident": 1482,
      "Ġconst": 1483,
      "Ġdeb": 1484,
      "50": 1485,
      "ccess": 1486,
      "ising": 1487,
      "Ġlarge": 1488,
      "ived": 1489,
      "Ġview": 1490,
      "Ġmar": 1491,
      "ush": 1492,
      "ney": 1493,
      "ley": 1494,
      "augh": 1495,
      "oad": 1496,
      "by": 1497,
      "As": 1498,
      "ality": 1499,
      "ĠGo": 1500,
      "ator": 1501,
      "Ġfamily": 1502,
      "ified": 1503,
      "ĠRepublic": 1504,
      "Ġair": 1505,
      "ane": 1506,
      "ee": 1507,
      "Ġdeal": 1508,
      "Ġworking": 1509,
      "Ġuntil": 1510,
      "If": 1511,
      "Ġmean": 1512,
      "Ġpolitical": 1513,
      "Ġes": 1514,
      "Ġdel": 1515,
      "gu": 1516,
      "arent": 1517,
      "alf": 1518,
      "ĠCan": 1519,
      "ocrat": 1520,
      "ional": 1521,
      "Ġfore": 1522,
      "Ġtook": 1523,
      "ister": 1524,
      "iqu": 1525,
      "Ġ,": 1526,
      "19": 1527,
      "Ġline": 1528,
      "bs": 1529,
      "ries": 1530,
      "ror": 1531,
      "Ġfund": 1532,
      "Ġla": 1533,
      "//": 1534,
      "ison": 1535,
      "ott": 1536,
      "Ġve": 1537,
      "enn": 1538,
      "ony": 1539,
      "work": 1540,
      "Ġever": 1541,
      "Ġoften": 1542,
      "Ġformer": 1543,
      "most": 1544,
      "year": 1545,
      "Ġword": 1546,
      "Ġvide": 1547,
      "Ġbecome": 1548,
      "ĠJohn": 1549,
      "iol": 1550,
      "Ġactually": 1551,
      "Ġintern": 1552,
      "Ġwon": 1553,
      "ization": 1554,
      "Ġgive": 1555,
      "ĠSc": 1556,
      "wh": 1557,
      "ĠMar": 1558,
      "ember": 1559,
      "aring": 1560,
      "11": 1561,
      "Ġhuman": 1562,
      "Ġdr": 1563,
      "Ġbas": 1564,
      "Ġreturn": 1565,
      "raph": 1566,
      "iber": 1567,
      "ĠAll": 1568,
      "Ġgames": 1569,
      "Ġsever": 1570,
      "Ġaccording": 1571,
      "ĠDem": 1572,
      "ER": 1573,
      "ĠEuro": 1574,
      "Ġtimes": 1575,
      "oint": 1576,
      "Ġname": 1577,
      "Ġsing": 1578,
      "Ġdev": 1579,
      "ither": 1580,
      "Ġevent": 1581,
      "Ġmedia": 1582,
      "for": 1583,
      "Ġorder": 1584,
      "raft": 1585,
      "ĠMc": 1586,
      "sh": 1587,
      "Ġdoing": 1588,
      "Ġfac": 1589,
      "ene": 1590,
      "Ġra": 1591,
      "Ġbit": 1592,
      "There": 1593,
      "gin": 1594,
      "Ġwater": 1595,
      "ĠCon": 1596,
      "iam": 1597,
      "uture": 1598,
      "Ġperform": 1599,
      "mber": 1600,
      "ĠSy": 1601,
      "ĠAt": 1602,
      "aken": 1603,
      "Ġtoday": 1604,
      "Ġ199": 1605,
      "Ġmarket": 1606,
      "Ġwr": 1607,
      "idd": 1608,
      "ats": 1609,
      "Ġpot": 1610,
      "icle": 1611,
      "ĠPl": 1612,
      "eng": 1613,
      "ware": 1614,
      "Ġhaving": 1615,
      "Ġappear": 1616,
      "Ġ15": 1617,
      "Ġnight": 1618,
      "ĠCol": 1619,
      "Ġseveral": 1620,
      "ched": 1621,
      "Ġcontrol": 1622,
      "Ġseen": 1623,
      "Ġearly": 1624,
      "artment": 1625,
      "ĠMay": 1626,
      "ĠOr": 1627,
      "Ġ11": 1628,
      "Ġchildren": 1629,
      "Ġmeet": 1630,
      "Ġwent": 1631,
      "Ġwhether": 1632,
      "une": 1633,
      "Ġocc": 1634,
      "idence": 1635,
      "Ġfive": 1636,
      "aps": 1637,
      "ĠPresident": 1638,
      "Ġpress": 1639,
      "Ġsure": 1640,
      "iously": 1641,
      "Ġyoung": 1642,
      "Ġcharac": 1643,
      "Ġdone": 1644,
      "ĠYork": 1645,
      "Ġcrit": 1646,
      "Ġmilit": 1647,
      "Ġexample": 1648,
      "Ġcertain": 1649,
      "Ġshort": 1650,
      "lf": 1651,
      "Ġplayers": 1652,
      "ories": 1653,
      "Ġquestion": 1654,
      "Ġeng": 1655,
      "Ġequ": 1656,
      "Ġmembers": 1657,
      "ium": 1658,
      "Ġside": 1659,
      "vert": 1660,
      "Ġlikely": 1661,
      "Ġsocial": 1662,
      "Ġant": 1663,
      "ĠMr": 1664,
      "ands": 1665,
      "ĠRuss": 1666,
      "Ġhour": 1667,
      "Ġinvol": 1668,
      "ĠObama": 1669,
      "Ġdesc": 1670,
      "ots": 1671,
      "eb": 1672,
      "imate": 1673,
      "And": 1674,
      "ended": 1675,
      "Ġalong": 1676,
      "uff": 1677,
      "Ġfight": 1678,
      "Ġmonths": 1679,
      "Ġsex": 1680,
      "Ġmeans": 1681,
      "Ġactiv": 1682,
      "Ġproblem": 1683,
      "ĠStates": 1684,
      "ially": 1685,
      "Ġprop": 1686,
      "rew": 1687,
      "ential": 1688,
      "Ġsuccess": 1689,
      "empt": 1690,
      "ulation": 1691,
      "nect": 1692,
      "12": 1693,
      "ĠEurope": 1694,
      "Ġonce": 1695,
      "Ġunderstand": 1696,
      "Ġinvestig": 1697,
      "ailable": 1698,
      "Ġcho": 1699,
      "Ġvers": 1700,
      "Ġamong": 1701,
      "Ġwithin": 1702,
      "Ġpossible": 1703,
      "ball": 1704,
      "Ġcourse": 1705,
      "Ġpur": 1706,
      "Ġ]": 1707,
      "ĠOn": 1708,
      "let": 1709,
      "ague": 1710,
      "my": 1711,
      "ggest": 1712,
      "ald": 1713,
      "iting": 1714,
      "Ġfuture": 1715,
      "Ġyet": 1716,
      "Ġacross": 1717,
      "Ġthought": 1718,
      "Ġpriv": 1719,
      "Ġreason": 1720,
      "Ġproduct": 1721,
      "itive": 1722,
      "ortun": 1723,
      "arm": 1724,
      "ster": 1725,
      "Ġnon": 1726,
      "ler": 1727,
      "Ġprotect": 1728,
      "Ġsuggest": 1729,
      "ubl": 1730,
      "Ġreported": 1731,
      "Ġcommunity": 1732,
      "ourn": 1733,
      "Ġlocal": 1734,
      "Ġviol": 1735,
      "Ġauthor": 1736,
      "ĠBr": 1737,
      "ivid": 1738,
      "inc": 1739,
      "oci": 1740,
      "verage": 1741,
      "ĠHouse": 1742,
      "You": 1743,
      "ober": 1744,
      "ĠNo": 1745,
      "ederal": 1746,
      "Ġsent": 1747,
      "ued": 1748,
      "ensive": 1749,
      "Ġhold": 1750,
      "Ġstrong": 1751,
      "Ġgiven": 1752,
      "aged": 1753,
      "ĠWhen": 1754,
      "Ġ2016": 1755,
      "Ġ&": 1756,
      "Ġlight": 1757,
      "Ġi": 1758,
      "Ġbelieve": 1759,
      "Ġmakes": 1760,
      "rest": 1761,
      "aff": 1762,
      "Ġknown": 1763,
      "Ġmus": 1764,
      "Ġprob": 1765,
      "Ġasked": 1766,
      "ĠUniversity": 1767,
      "Ġcut": 1768,
      "Ġben": 1769,
      "not": 1770,
      "Ġorig": 1771,
      "ances": 1772,
      "Ġfail": 1773,
      "Ġcond": 1774,
      "ĠTe": 1775,
      "por": 1776,
      "Ġ30": 1777,
      "Ġothers": 1778,
      "itions": 1779,
      "ashing": 1780,
      "br": 1781,
      "Ġgetting": 1782,
      "ones": 1783,
      "Ġident": 1784,
      "witter": 1785,
      "Ġannoun": 1786,
      "ĠState": 1787,
      "ored": 1788,
      "back": 1789,
      "eg": 1790,
      "aster": 1791,
      "âĢĵ": 1792,
      "'ve": 1793,
      "ource": 1794,
      "rop": 1795,
      "Ġlim": 1796,
      "Ġvideo": 1797,
      "iety": 1798,
      "book": 1799,
      "urther": 1800,
      "iron": 1801,
      "Ġclose": 1802,
      "resent": 1803,
      "ĠChrist": 1804,
      "30": 1805,
      "of": 1806,
      "Ġhig": 1807,
      "For": 1808,
      "Ġdeath": 1809,
      "Ġnational": 1810,
      "Ġcreat": 1811,
      "orld": 1812,
      "Ġemploy": 1813,
      "Ġbat": 1814,
      "Ġstarted": 1815,
      ".,": 1816,
      "Ġlow": 1817,
      "Ġavailable": 1818,
      "ĠCent": 1819,
      "Ġsaf": 1820,
      "ability": 1821,
      "Ġnet": 1822,
      "rict": 1823,
      "Ġpar": 1824,
      "Ġland": 1825,
      "Ġ2015": 1826,
      "Ġindust": 1827,
      "ĠX": 1828,
      "Ġparty": 1829,
      "Ġaccount": 1830,
      "ĠCo": 1831,
      "Ġfollowing": 1832,
      "Ġ#": 1833,
      "ĠDemocrat": 1834,
      "Ġlove": 1835,
      "Ġmom": 1836,
      "gether": 1837,
      "Ġtogether": 1838,
      "ilar": 1839,
      "Ġcomes": 1840,
      "Ġissue": 1841,
      "Ġalmost": 1842,
      "selves": 1843,
      "Ġtrying": 1844,
      "pro": 1845,
      "Ġago": 1846,
      "use": 1847,
      "Ġaccess": 1848,
      "uly": 1849,
      "Ġbased": 1850,
      "://": 1851,
      "Ġidea": 1852,
      "Ġhistory": 1853,
      "Ġfilm": 1854,
      "utes": 1855,
      "reed": 1856,
      "itional": 1857,
      "hers": 1858,
      "Ġadded": 1859,
      "Ġseries": 1860,
      "ief": 1861,
      "15": 1862,
      "though": 1863,
      "ĠAm": 1864,
      "ĠAmerica": 1865,
      "ĠFl": 1866,
      "ring": 1867,
      "ĠSen": 1868,
      "ream": 1869,
      "orts": 1870,
      "ĠMin": 1871,
      "Ġimpro": 1872,
      "Ġisn": 1873,
      "ination": 1874,
      "rown": 1875,
      "Ġ2014": 1876,
      "ien": 1877,
      "Ġpract": 1878,
      "Ġ16": 1879,
      "rael": 1880,
      "erman": 1881,
      "rug": 1882,
      "Ġfoc": 1883,
      "ĠWhat": 1884,
      "Ġhit": 1885,
      "Ġcommit": 1886,
      "Ġtrad": 1887,
      "Ġhalf": 1888,
      "ĠOne": 1889,
      "Ġanything": 1890,
      "aid": 1891,
      "ged": 1892,
      "Ġclear": 1893,
      "cer": 1894,
      "What": 1895,
      "erence": 1896,
      "Ġanal": 1897,
      "inton": 1898,
      "Ġbill": 1899,
      "Ġcomplete": 1900,
      "Ġris": 1901,
      "Ġexperience": 1902,
      "ails": 1903,
      "af": 1904,
      "Ġtaken": 1905,
      "minist": 1906,
      "Ġ/": 1907,
      "Ġface": 1908,
      "AT": 1909,
      "Ġsaying": 1910,
      "Ġlive": 1911,
      "Ġfav": 1912,
      "Ġarea": 1913,
      "Ġlooking": 1914,
      "cially": 1915,
      "ividual": 1916,
      "Ġbad": 1917,
      "Ġsix": 1918,
      "Ġvict": 1919,
      "Ġphot": 1920,
      "unch": 1921,
      "Ġrul": 1922,
      "IN": 1923,
      "ĠDon": 1924,
      "ĠPr": 1925,
      "Ġtry": 1926,
      "ĠComm": 1927,
      "raw": 1928,
      "Ġnear": 1929,
      "Ġblack": 1930,
      "Ġbehind": 1931,
      "Ġaut": 1932,
      "ĠEx": 1933,
      "Ġmor": 1934,
      "'m": 1935,
      "Ġstudy": 1936,
      "ustom": 1937,
      "ai": 1938,
      "Ġ14": 1939,
      "Ġcompet": 1940,
      "atic": 1941,
      "Ġcourt": 1942,
      "ĠEng": 1943,
      "Ġpresent": 1944,
      "ators": 1945,
      "osp": 1946,
      "wards": 1947,
      "Ġtre": 1948,
      "ote": 1949,
      "Ġentire": 1950,
      "ĠPol": 1951,
      "Ġpolicy": 1952,
      "uge": 1953,
      "Ġsingle": 1954,
      "Ġproper": 1955,
      "Ġmult": 1956,
      "Ġmilitary": 1957,
      "Ġquick": 1958,
      "irc": 1959,
      "Ġfood": 1960,
      "ris": 1961,
      "ĠCanad": 1962,
      "Ġthreat": 1963,
      "ON": 1964,
      "play": 1965,
      "Ġsecurity": 1966,
      "Ġtot": 1967,
      "ocu": 1968,
      "Ġmiss": 1969,
      "ids": 1970,
      "Ġredu": 1971,
      "Ġrather": 1972,
      "ĠBrit": 1973,
      "ww": 1974,
      "Ġdiscuss": 1975,
      "lement": 1976,
      "ĠIm": 1977,
      "Ġz": 1978,
      "Ġconcern": 1979,
      "Ġer": 1980,
      "Ġmind": 1981,
      "ĠTo": 1982,
      "Ġfall": 1983,
      "ows": 1984,
      "ĠAf": 1985,
      "Ġindividual": 1986,
      "ashington": 1987,
      "par": 1988,
      "aper": 1989,
      "Ġspecial": 1990,
      "ĠNorth": 1991,
      "An": 1992,
      "Ġcompan": 1993,
      "On": 1994,
      "ev": 1995,
      "dd": 1996,
      "Ġsomeone": 1997,
      "nes": 1998,
      "ĠDep": 1999,
      "lling": 2000,
      "Ġsum": 2001,
      "Ġmess": 2002,
      "ply": 2003,
      "Ġkey": 2004,
      "go": 2005,
      "Ġwanted": 2006,
      "When": 2007,
      "Ġcomb": 2008,
      "Ġ17": 2009,
      "Ġpoints": 2010,
      "Ġbring": 2011,
      "13": 2012,
      "ana": 2013,
      "Ã©": 2014,
      "Ġattempt": 2015,
      "off": 2016,
      "Ġresearch": 2017,
      "ĠIsrael": 2018,
      "ĠNational": 2019,
      "ĠSec": 2020,
      "Ġnothing": 2021,
      "Ġpubl": 2022,
      "Ġbody": 2023,
      "Ġ13": 2024,
      "ales": 2025,
      "Ġelse": 2026,
      "ify": 2027,
      "Ġtaking": 2028,
      "Ġfront": 2029,
      "Ġdescrib": 2030,
      "Ġlearn": 2031,
      "Ġcult": 2032,
      "Ġsimilar": 2033,
      "ĠÂ": 2034,
      "cing": 2035,
      "ĠCal": 2036,
      "elt": 2037,
      "Ġcoming": 2038,
      "mb": 2039,
      "over": 2040,
      "Ġcou": 2041,
      "16": 2042,
      "IS": 2043,
      "sy": 2044,
      "Ġprobably": 2045,
      "RE": 2046,
      "ĠAust": 2047,
      "viron": 2048,
      "ĠClinton": 2049,
      "Ġsw": 2050,
      "Ġsus": 2051,
      "ming": 2052,
      "ĠWar": 2053,
      "ĠCar": 2054,
      "Ġpret": 2055,
      "Ġbenef": 2056,
      "ault": 2057,
      "Ġfoot": 2058,
      "ches": 2059,
      "Ġconnect": 2060,
      "ĠCity": 2061,
      "reme": 2062,
      "Ġhowever": 2063,
      "Ġeither": 2064,
      "Ġspace": 2065,
      "rote": 2066,
      "14": 2067,
      "Ġpick": 2068,
      "Ġdecision": 2069,
      "asing": 2070,
      "irl": 2071,
      "pping": 2072,
      "ĠMan": 2073,
      "AN": 2074,
      "now": 2075,
      "That": 2076,
      "Ġhouse": 2077,
      ".)": 2078,
      "Ġplayer": 2079,
      "aces": 2080,
      "Ġjo": 2081,
      "ape": 2082,
      "ully": 2083,
      "Ġservice": 2084,
      "Ġcoun": 2085,
      "Ġsuper": 2086,
      "Ġconv": 2087,
      "ĠWashington": 2088,
      "____": 2089,
      "Ġ2013": 2090,
      "So": 2091,
      "Ġfire": 2092,
      "Ġargu": 2093,
      "att": 2094,
      "Ġchall": 2095,
      "Ġfurther": 2096,
      "Ġrights": 2097,
      "Ġimm": 2098,
      "Ġfeat": 2099,
      "Ġmeas": 2100,
      "Ġroom": 2101,
      "Ġwa": 2102,
      "ĠGr": 2103,
      "Ġ:": 2104,
      "ĠGu": 2105,
      "Ġsound": 2106,
      "yn": 2107,
      "Ġenc": 2108,
      "anks": 2109,
      "Ġsignific": 2110,
      "ĠWorld": 2111,
      "ĠWith": 2112,
      "Ġtarg": 2113,
      "Ġcreate": 2114,
      "Ġmass": 2115,
      "Ġwhole": 2116,
      "Ġfig": 2117,
      "Ġdam": 2118,
      "Ġself": 2119,
      "Ġstop": 2120,
      "ĠJan": 2121,
      "Ġcompl": 2122,
      "Ġexist": 2123,
      "Ġey": 2124,
      "Ġfederal": 2125,
      "Ġbegin": 2126,
      "Ġstep": 2127,
      "pecially": 2128,
      "olution": 2129,
      "Ġissues": 2130,
      "sw": 2131,
      "rodu": 2132,
      "amed": 2133,
      "Ġthird": 2134,
      "Ġ2017": 2135,
      "Ġstri": 2136,
      "Ġ2012": 2137,
      "Ġcompanies": 2138,
      "ung": 2139,
      "ources": 2140,
      "Ġeverything": 2141,
      "ĠSu": 2142,
      "Ġrepl": 2143,
      "Ġwrote": 2144,
      "ively": 2145,
      "Ġstudents": 2146,
      "pite": 2147,
      "Ġseems": 2148,
      "iday": 2149,
      "Ġ)": 2150,
      "Ġaction": 2151,
      "ently": 2152,
      "Ġleaders": 2153,
      "Ġ<": 2154,
      "Ġexec": 2155,
      "arth": 2156,
      "ivil": 2157,
      "aul": 2158,
      "Ġdue": 2159,
      "ilt": 2160,
      "Ġreleased": 2161,
      "icult": 2162,
      "Ġgun": 2163,
      "Ġamount": 2164,
      "Ġposition": 2165,
      "uation": 2166,
      "ibility": 2167,
      "Ġfinal": 2168,
      "Ġener": 2169,
      "Ġbegan": 2170,
      "Ġdrug": 2171,
      "ried": 2172,
      "Ġwatch": 2173,
      "Ġtreat": 2174,
      "Ġrelease": 2175,
      "like": 2176,
      "head": 2177,
      "eal": 2178,
      "ĠInst": 2179,
      "ĠDav": 2180,
      "Ġoutside": 2181,
      "Ġrelations": 2182,
      "obal": 2183,
      "Ġhimself": 2184,
      "Ch": 2185,
      "Ġlab": 2186,
      "sec": 2187,
      "Ġhours": 2188,
      "Ġbreak": 2189,
      "ĠHowever": 2190,
      "Ġcand": 2191,
      "arlier": 2192,
      "ery": 2193,
      "Ġstat": 2194,
      "Ġinfl": 2195,
      "Ġdou": 2196,
      "Ġrole": 2197,
      "Ġofficials": 2198,
      "oon": 2199,
      "Ġfield": 2200,
      "Ġmatter": 2201,
      "ogn": 2202,
      "oid": 2203,
      "Ġstatement": 2204,
      "Ġabove": 2205,
      "Ġinit": 2206,
      "Ġground": 2207,
      "Ġstates": 2208,
      "ender": 2209,
      "ĠSouth": 2210,
      "'ll": 2211,
      "vironment": 2212,
      "angu": 2213,
      "ffic": 2214,
      "ades": 2215,
      "Ġdom": 2216,
      "Ġcontinue": 2217,
      "ĠBar": 2218,
      "iod": 2219,
      "Ġaddress": 2220,
      "Ġcharacter": 2221,
      "Ġrepresent": 2222,
      "Ġspecific": 2223,
      "ask": 2224,
      "Ġprovide": 2225,
      "ĠApp": 2226,
      "amer": 2227,
      "Ġ|": 2228,
      "ĠJust": 2229,
      "Ġsimply": 2230,
      "aced": 2231,
      "Ġthemselves": 2232,
      "reg": 2233,
      "Ġcustom": 2234,
      "Ġneeds": 2235,
      "ĠGerman": 2236,
      "Ġdocu": 2237,
      "acebook": 2238,
      "ĠHar": 2239,
      "Ġlarg": 2240,
      "ĠGe": 2241,
      "Ġopt": 2242,
      "Ġitself": 2243,
      "Ġwasn": 2244,
      "Ġinterview": 2245,
      "Ġgroups": 2246,
      "Ġinj": 2247,
      "ograph": 2248,
      "ĠPart": 2249,
      "Ġoffice": 2250,
      "Ġ25": 2251,
      "Ġgeneral": 2252,
      "Ġbecame": 2253,
      "Ġ100": 2254,
      "ĠAb": 2255,
      "ĠIntern": 2256,
      "Ġadminist": 2257,
      "Ġwoman": 2258,
      "ran": 2259,
      "Ġ198": 2260,
      "Ġtyp": 2261,
      "17": 2262,
      "BC": 2263,
      "isc": 2264,
      "lish": 2265,
      "Ġcop": 2266,
      "Ġagree": 2267,
      "AR": 2268,
      "Ġcountries": 2269,
      "Ġtrue": 2270,
      "lim": 2271,
      "Ġdifficult": 2272,
      "Ġrad": 2273,
      "umb": 2274,
      "ĠRes": 2275,
      "Ġneg": 2276,
      "Ġcommon": 2277,
      "Ġdeep": 2278,
      "Ġbar": 2279,
      "right": 2280,
      "Ġwhite": 2281,
      "Ġneeded": 2282,
      "Ġdevelopment": 2283,
      "Ġrespons": 2284,
      "How": 2285,
      "Ġsignificant": 2286,
      "Ġmusic": 2287,
      "eks": 2288,
      "Ġrunning": 2289,
      "ĠHis": 2290,
      "Ġlat": 2291,
      "Ġeveryone": 2292,
      "Ġshows": 2293,
      "ĠAss": 2294,
      "Ġevidence": 2295,
      "Ġbelow": 2296,
      "iddle": 2297,
      "Ġdest": 2298,
      "AS": 2299,
      "ournal": 2300,
      "ique": 2301,
      "Ġ50": 2302,
      "Ġtem": 2303,
      "Ġsaw": 2304,
      "ribut": 2305,
      "Ġprofess": 2306,
      "**": 2307,
      "where": 2308,
      "Ġbuilding": 2309,
      "18": 2310,
      "ili": 2311,
      "body": 2312,
      "atur": 2313,
      "Ġindustry": 2314,
      "Ġcharg": 2315,
      "ĠMed": 2316,
      "Ġalleg": 2317,
      "omm": 2318,
      "Ġap": 2319,
      "Ġpretty": 2320,
      "Ġtrack": 2321,
      "Ġlo": 2322,
      "Ġversion": 2323,
      "Ġenergy": 2324,
      "arter": 2325,
      "Ġphys": 2326,
      "lev": 2327,
      "Ġplaying": 2328,
      "ift": 2329,
      "Ġinclude": 2330,
      "Ġfriends": 2331,
      "Ġhom": 2332,
      "ĠEd": 2333,
      "ript": 2334,
      "Ġabs": 2335,
      "Ġlegal": 2336,
      "Ġsense": 2337,
      "ĠAfter": 2338,
      "--------": 2339,
      "Ġlost": 2340,
      "Ġvalue": 2341,
      "Ġjud": 2342,
      "Ġquite": 2343,
      "Ġple": 2344,
      "ĠWest": 2345,
      "Ġball": 2346,
      "ival": 2347,
      "Ġmot": 2348,
      "lam": 2349,
      "Ġespecially": 2350,
      "Ġvote": 2351,
      "Ġshoot": 2352,
      "ogle": 2353,
      "Ġlate": 2354,
      "ĠOct": 2355,
      "yle": 2356,
      "Ġforward": 2357,
      "ĠChina": 2358,
      "Ġplayed": 2359,
      "hod": 2360,
      "Ġexc": 2361,
      "Ġobject": 2362,
      "Ġhost": 2363,
      "alt": 2364,
      "ned": 2365,
      "Ġmag": 2366,
      "ĠWhite": 2367,
      "Al": 2368,
      "ĠNews": 2369,
      "Ġrecently": 2370,
      "oring": 2371,
      "osing": 2372,
      "ager": 2373,
      "na": 2374,
      "ĠCong": 2375,
      "bo": 2376,
      "Ġcandid": 2377,
      "ĠMy": 2378,
      "Ġsoon": 2379,
      "time": 2380,
      "ccording": 2381,
      "Ġinstead": 2382,
      "Ġweeks": 2383,
      "Ġperiod": 2384,
      "arc": 2385,
      "Ġaccept": 2386,
      "ached": 2387,
      "ij": 2388,
      "eed": 2389,
      "epend": 2390,
      "ĠNot": 2391,
      "ients": 2392,
      "Ġchanges": 2393,
      "Ġdeter": 2394,
      "Ġbillion": 2395,
      "ĠWill": 2396,
      "duct": 2397,
      "ression": 2398,
      "lege": 2399,
      "Ġeduc": 2400,
      "Ġcred": 2401,
      "Ġblock": 2402,
      "Ġanim": 2403,
      "Ġgen": 2404,
      "istic": 2405,
      "key": 2406,
      "Ġpie": 2407,
      "medi": 2408,
      "Ġopportun": 2409,
      "Ġhope": 2410,
      "Ġsite": 2411,
      "Ġeconomic": 2412,
      "Ġmoment": 2413,
      "Ġ24": 2414,
      "Ġlonger": 2415,
      "Ġred": 2416,
      "Ġep": 2417,
      "ĠDepartment": 2418,
      "ĠRepublican": 2419,
      "ental": 2420,
      "ĠTwitter": 2421,
      "ancial": 2422,
      "Ġconsider": 2423,
      "oe": 2424,
      "Ġpain": 2425,
      "Ġdecl": 2426,
      "fect": 2427,
      "Ġhigher": 2428,
      "Ġconsum": 2429,
      "Ġwords": 2430,
      "Ġcheck": 2431,
      "apan": 2432,
      "Ġshare": 2433,
      "Ġet": 2434,
      "oph": 2435,
      "ĠThese": 2436,
      "Ġcirc": 2437,
      "icro": 2438,
      "irm": 2439,
      "Ġpotential": 2440,
      "Ġcode": 2441,
      "Ġworks": 2442,
      "Ġdi": 2443,
      "ateg": 2444,
      "Ġonline": 2445,
      "aut": 2446,
      "Ġwalk": 2447,
      "ĠMus": 2448,
      "Ġcontract": 2449,
      "25": 2450,
      "Ġsold": 2451,
      "ray": 2452,
      "ights": 2453,
      "Ġstay": 2454,
      "Ġparent": 2455,
      "ĠMarch": 2456,
      "Ġ2011": 2457,
      "isl": 2458,
      "uary": 2459,
      "Ġrisk": 2460,
      "ĠAug": 2461,
      "Ġheld": 2462,
      "Ġwrong": 2463,
      "Ġled": 2464,
      "ĠSept": 2465,
      "Ġrate": 2466,
      "ularly": 2467,
      "oke": 2468,
      "ĠMich": 2469,
      "Ġaud": 2470,
      "Ġvol": 2471,
      "ples": 2472,
      "Ġstru": 2473,
      "cial": 2474,
      "iding": 2475,
      "irt": 2476,
      "cil": 2477,
      "onse": 2478,
      "Ġelection": 2479,
      "Ġwind": 2480,
      "ĠGod": 2481,
      "Ġce": 2482,
      "Ġtit": 2483,
      "They": 2484,
      "Ġresults": 2485,
      "Ġ+": 2486,
      "Ġdead": 2487,
      "ole": 2488,
      "Ġreve": 2489,
      "Ġtotal": 2490,
      "Ġanyone": 2491,
      "Ġpred": 2492,
      "Ġreview": 2493,
      "Ġprim": 2494,
      "Ġpersonal": 2495,
      "ĠJune": 2496,
      "Ġlaws": 2497,
      "Ġminutes": 2498,
      "lt": 2499,
      "ES": 2500,
      "Ġfocus": 2501,
      "anger": 2502,
      "Ġtechnology": 2503,
      "Ph": 2504,
      "val": 2505,
      "aging": 2506,
      "urd": 2507,
      "Ġ{": 2508,
      "eter": 2509,
      "action": 2510,
      "Ġwebs": 2511,
      "Ġarticle": 2512,
      "Ġapplic": 2513,
      "ĠCongress": 2514,
      "Ġscient": 2515,
      "Ġbase": 2516,
      "Ġcomment": 2517,
      "Ġnecess": 2518,
      "Ġgoal": 2519,
      "Ġfavor": 2520,
      "Ġage": 2521,
      "Ġlangu": 2522,
      "Ġanti": 2523,
      "pril": 2524,
      "haps": 2525,
      "Ġshot": 2526,
      "Ġcomput": 2527,
      "ude": 2528,
      "Ġearlier": 2529,
      "ech": 2530,
      "hel": 2531,
      "Ad": 2532,
      "fer": 2533,
      "overed": 2534,
      "asons": 2535,
      "Ġupd": 2536,
      "Ġrelig": 2537,
      "Ġreceived": 2538,
      "Ġproblems": 2539,
      "ĠSm": 2540,
      "Ġrev": 2541,
      "Ġ2010": 2542,
      "ĠMond": 2543,
      "ĠSyri": 2544,
      "Ġincrease": 2545,
      "ilities": 2546,
      "Ġeasy": 2547,
      "Ġservices": 2548,
      "Ġhy": 2549,
      "Ġenvironment": 2550,
      "Ġsurpr": 2551,
      "Ġtarget": 2552,
      "aterial": 2553,
      "onst": 2554,
      "Ġexpected": 2555,
      "cle": 2556,
      "uel": 2557,
      "Ġways": 2558,
      "ĠAustral": 2559,
      "gr": 2560,
      "hern": 2561,
      "Ġfunction": 2562,
      "Ġrespect": 2563,
      "Ġden": 2564,
      "Ġcontent": 2565,
      "Ġpopular": 2566,
      "Ġcannot": 2567,
      "Ġcreated": 2568,
      "ills": 2569,
      "Ġansw": 2570,
      "itution": 2571,
      "Ġquestions": 2572,
      "ends": 2573,
      "ĠFacebook": 2574,
      "Ġprivate": 2575,
      "rel": 2576,
      "Ġforce": 2577,
      "Ġinvolved": 2578,
      "Ġport": 2579,
      "ĠEn": 2580,
      "cast": 2581,
      "ners": 2582,
      "ĠCount": 2583,
      "tee": 2584,
      "ĠJuly": 2585,
      "put": 2586,
      "Ġpack": 2587,
      "Ġcases": 2588,
      "ham": 2589,
      "Ġstaff": 2590,
      "Ġannounced": 2591,
      "atives": 2592,
      "ires": 2593,
      "Ġur": 2594,
      "iple": 2595,
      "Ġcivil": 2596,
      "uesday": 2597,
      "ĠSte": 2598,
      "ĠAct": 2599,
      "ĠJapan": 2600,
      "rap": 2601,
      "Ġspeak": 2602,
      "aving": 2603,
      "bit": 2604,
      "okes": 2605,
      "Ġimpact": 2606,
      "lled": 2607,
      "ĠFriday": 2608,
      "mon": 2609,
      "ourt": 2610,
      "Ġdiv": 2611,
      "Ġhtt": 2612,
      "ĠDo": 2613,
      "mp": 2614,
      "ging": 2615,
      "Ġarrest": 2616,
      "ressed": 2617,
      "Ġexecut": 2618,
      "ĠPer": 2619,
      "ĠPe": 2620,
      "Ġmodel": 2621,
      "ological": 2622,
      "Ġtype": 2623,
      "atural": 2624,
      "Ġexact": 2625,
      "ule": 2626,
      "urch": 2627,
      "ĠMonday": 2628,
      "itiz": 2629,
      "Ġsubject": 2630,
      "To": 2631,
      "Ġcoll": 2632,
      "Ġheart": 2633,
      "Ġleave": 2634,
      "ees": 2635,
      "ĠEl": 2636,
      "Ġaverage": 2637,
      "Ġsen": 2638,
      "ips": 2639,
      "60": 2640,
      "Ġnearly": 2641,
      "ael": 2642,
      "lex": 2643,
      "Ġbroad": 2644,
      "Ġreports": 2645,
      "reet": 2646,
      "oto": 2647,
      "che": 2648,
      "ĠNow": 2649,
      "Ġworth": 2650,
      "Ġterror": 2651,
      "Ġliving": 2652,
      "Ġchance": 2653,
      "ĠApril": 2654,
      "ext": 2655,
      "ĠPal": 2656,
      "ctor": 2657,
      "Ġbecom": 2658,
      "ĠDr": 2659,
      "Ġinside": 2660,
      "Ġoil": 2661,
      "Ġtou": 2662,
      "ĠTuesday": 2663,
      "Ġmother": 2664,
      "Ġglobal": 2665,
      "Ġcal": 2666,
      "omb": 2667,
      "Ġbuy": 2668,
      "Ġusers": 2669,
      "ĠRed": 2670,
      "Ġrequest": 2671,
      "Ġresponse": 2672,
      "Ġoriginal": 2673,
      "Ġworked": 2674,
      "Ġ197": 2675,
      "Ġfinancial": 2676,
      "Ġrespond": 2677,
      "joy": 2678,
      "EN": 2679,
      "Ġassoci": 2680,
      "OR": 2681,
      "osition": 2682,
      "rem": 2683,
      "Ġnation": 2684,
      "ĠWed": 2685,
      "hood": 2686,
      "unt": 2687,
      "At": 2688,
      "Ġroad": 2689,
      "Ġfans": 2690,
      "Ġrelationship": 2691,
      "Ġkilled": 2692,
      "Ġimmedi": 2693,
      "Ġsource": 2694,
      "izing": 2695,
      "rought": 2696,
      "ino": 2697,
      "\".": 2698,
      "ovember": 2699,
      "Ġcollect": 2700,
      "Ġestab": 2701,
      "Ġinternational": 2702,
      "Ġmid": 2703,
      "ĠWhile": 2704,
      "Ġterms": 2705,
      "Ġsqu": 2706,
      "Ġtakes": 2707,
      "Ġprice": 2708,
      "bor": 2709,
      "ĠAmericans": 2710,
      "ops": 2711,
      "Ġmethod": 2712,
      "ĠSome": 2713,
      "Ġtal": 2714,
      "ursday": 2715,
      "Ġmember": 2716,
      "Ġaffect": 2717,
      "order": 2718,
      "Ġindic": 2719,
      "ises": 2720,
      "Ġrecogn": 2721,
      "Ġdefin": 2722,
      "Ġobs": 2723,
      "Ġcell": 2724,
      "ĠAg": 2725,
      "Ġdirector": 2726,
      "Ġphone": 2727,
      "vertise": 2728,
      "Ġsoft": 2729,
      "ky": 2730,
      "nesday": 2731,
      "Ġforeign": 2732,
      "Ġdecided": 2733,
      "ĠSan": 2734,
      "Ġclub": 2735,
      "Ġsituation": 2736,
      "ites": 2737,
      "ĠJanuary": 2738,
      "ĠBy": 2739,
      "Ġweap": 2740,
      "Ġwhose": 2741,
      "==": 2742,
      "istan": 2743,
      "Ġturned": 2744,
      "Ġgirl": 2745,
      "Ġability": 2746,
      "bl": 2747,
      "ĠCalif": 2748,
      "Ġcurrently": 2749,
      "Ġstore": 2750,
      "Ġpublished": 2751,
      "ĠGoogle": 2752,
      "Ġcapital": 2753,
      "Ġhappened": 2754,
      "face": 2755,
      "Ġlives": 2756,
      "Ġlack": 2757,
      "ĠMe": 2758,
      "Ġemer": 2759,
      ");": 2760,
      "Ġmaterial": 2761,
      "ellig": 2762,
      "fully": 2763,
      "40": 2764,
      "based": 2765,
      "Ġsimple": 2766,
      "oved": 2767,
      "raz": 2768,
      "clus": 2769,
      "ought": 2770,
      "oor": 2771,
      "Ġmeeting": 2772,
      "Ġworkers": 2773,
      "Ġfem": 2774,
      "ĠTV": 2775,
      "Ġgave": 2776,
      "Ġ40": 2777,
      "ĠGl": 2778,
      "Ġcareer": 2779,
      "200": 2780,
      "ĠCor": 2781,
      "Ġapproach": 2782,
      "ĠHill": 2783,
      "Ġparticip": 2784,
      "Ġpict": 2785,
      "One": 2786,
      "Ġhuge": 2787,
      "Ġoffer": 2788,
      "Ġinflu": 2789,
      "Ġsuff": 2790,
      "ĠBro": 2791,
      "Ġfelt": 2792,
      "Ġbank": 2793,
      "Ġrace": 2794,
      "ened": 2795,
      "Ġperformance": 2796,
      "ĠNovember": 2797,
      "load": 2798,
      "ĠThursday": 2799,
      "Ġtool": 2800,
      "Ġgoes": 2801,
      "Ġcouple": 2802,
      "Ġeconomy": 2803,
      "rect": 2804,
      "ĠFeb": 2805,
      "Ġpull": 2806,
      "Sh": 2807,
      "Ġarri": 2808,
      "Ġpage": 2809,
      "Ġnetwork": 2810,
      "Ġvictim": 2811,
      "Ġlower": 2812,
      "Ġ21": 2813,
      "Ġrequire": 2814,
      "Ġcy": 2815,
      "ruction": 2816,
      "Ġhands": 2817,
      "rain": 2818,
      "ĠWednesday": 2819,
      "ume": 2820,
      "Ġquickly": 2821,
      "ressive": 2822,
      "Ġplans": 2823,
      "Ġareas": 2824,
      "ĠSeptember": 2825,
      "Ġintrodu": 2826,
      "Ġill": 2827,
      "Ġengine": 2828,
      "Ġnorm": 2829,
      "Ġimprove": 2830,
      "Ġlog": 2831,
      "Ġregard": 2832,
      "Ġteams": 2833,
      "Ġtrade": 2834,
      "ĠDavid": 2835,
      "Ġnumbers": 2836,
      "Ġrepe": 2837,
      "ĠPaul": 2838,
      "Ġadministration": 2839,
      "Ġ22": 2840,
      "sp": 2841,
      "ĠRussia": 2842,
      "\",": 2843,
      "Ġord": 2844,
      "Ġfather": 2845,
      "ety": 2846,
      "Ġdig": 2847,
      "Ġbi": 2848,
      "Ġbuilt": 2849,
      "Ġvia": 2850,
      "iction": 2851,
      "oud": 2852,
      "ĠAng": 2853,
      "ĠSund": 2854,
      "aily": 2855,
      "Ġlegisl": 2856,
      "ĠAugust": 2857,
      "ĠCourt": 2858,
      "chie": 2859,
      "Ġperfect": 2860,
      "Ġpers": 2861,
      "AL": 2862,
      "Ġste": 2863,
      "Ġhon": 2864,
      "Ġemail": 2865,
      "ĠOctober": 2866,
      "Ġevents": 2867,
      "ructure": 2868,
      "fl": 2869,
      "Ġmis": 2870,
      "cember": 2871,
      "Ġtext": 2872,
      "Ġround": 2873,
      "Ġmatch": 2874,
      "Ġwide": 2875,
      "aur": 2876,
      "Ġknew": 2877,
      "Ġheard": 2878,
      "orters": 2879,
      "Ġenjoy": 2880,
      "ornia": 2881,
      "ĠAfric": 2882,
      "Ġthous": 2883,
      "avy": 2884,
      "Ġloss": 2885,
      "?âĢĿ": 2886,
      "ences": 2887,
      "org": 2888,
      "Ġtravel": 2889,
      "ĠSch": 2890,
      "Ġwants": 2891,
      "Ġincluded": 2892,
      "Ġallowed": 2893,
      "urning": 2894,
      "Ġproduction": 2895,
      "Ġsecret": 2896,
      "Ġpoll": 2897,
      "Ġ@": 2898,
      "Ġfre": 2899,
      "Ġreveal": 2900,
      "âĢĿ.": 2901,
      "ĠIslam": 2902,
      "Ġwebsite": 2903,
      "inks": 2904,
      "OS": 2905,
      "Ġattention": 2906,
      "Ġreach": 2907,
      "ession": 2908,
      "Ġspent": 2909,
      "Ġmovement": 2910,
      "atory": 2911,
      "apt": 2912,
      "Ġcontact": 2913,
      "Ġdro": 2914,
      "down": 2915,
      "hold": 2916,
      "Ġcover": 2917,
      "Ġcapt": 2918,
      "ma": 2919,
      "ese": 2920,
      "Ġgets": 2921,
      "ĠEuropean": 2922,
      "ĠBritish": 2923,
      "Ġbud": 2924,
      "Ġexam": 2925,
      "Ġsepar": 2926,
      "Ġupon": 2927,
      "ĠIS": 2928,
      "Ġsong": 2929,
      "Ġtried": 2930,
      "gest": 2931,
      "Ġtown": 2932,
      "Ġfair": 2933,
      "Ġlooks": 2934,
      "ĠQu": 2935,
      "force": 2936,
      "idered": 2937,
      "With": 2938,
      "agement": 2939,
      "ening": 2940,
      "ctions": 2941,
      "Ġboard": 2942,
      "ĠCounty": 2943,
      "ceed": 2944,
      "Ġneigh": 2945,
      "Ġcause": 2946,
      "aker": 2947,
      "yond": 2948,
      "Ġfear": 2949,
      "Ġvisit": 2950,
      "uses": 2951,
      "ĠJew": 2952,
      "Ġsearch": 2953,
      "ze": 2954,
      "estern": 2955,
      "ground": 2956,
      "Ġboy": 2957,
      "arily": 2958,
      "Ġpopulation": 2959,
      "'d": 2960,
      "Ġdemand": 2961,
      "ĠKore": 2962,
      "iers": 2963,
      "set": 2964,
      "ledge": 2965,
      "Ġtraining": 2966,
      "ĠCanada": 2967,
      "Ġbrought": 2968,
      "Ġforces": 2969,
      "Ġvo": 2970,
      "ishing": 2971,
      "Ġrac": 2972,
      "ĠBlack": 2973,
      "Ġsize": 2974,
      "ibly": 2975,
      "Ġmention": 2976,
      "Ġhot": 2977,
      "Ġfell": 2978,
      "Ġmorning": 2979,
      "Ġ23": 2980,
      "Ġlink": 2981,
      "idents": 2982,
      "rated": 2983,
      "ĠSunday": 2984,
      "ĠCalifornia": 2985,
      "After": 2986,
      "Ġens": 2987,
      "Ġparticular": 2988,
      "ĠUK": 2989,
      "rim": 2990,
      "Ġ}": 2991,
      "ĠDecember": 2992,
      "Ġvarious": 2993,
      "Ġgrowth": 2994,
      "Ġmedical": 2995,
      "Ġfast": 2996,
      "lin": 2997,
      "alled": 2998,
      "Ġess": 2999,
      "Ġcitiz": 3000,
      "sequ": 3001,
      "Ġprevious": 3002,
      "omp": 3003,
      "While": 3004,
      "Ġleader": 3005,
      "ĠPost": 3006,
      "Ġlanguage": 3007,
      "Ġbehav": 3008,
      "bed": 3009,
      "uk": 3010,
      "ĠSw": 3011,
      "ĠCont": 3012,
      "Ġconsidered": 3013,
      "Ġprep": 3014,
      "ĠKing": 3015,
      "iant": 3016,
      "ĠIndia": 3017,
      "Ġhor": 3018,
      "Ġliber": 3019,
      "ĠPark": 3020,
      "Ġspeed": 3021,
      "ĠTimes": 3022,
      "Ġlatest": 3023,
      "Ġwond": 3024,
      "cies": 3025,
      "Ġstrugg": 3026,
      "aturday": 3027,
      "undred": 3028,
      "field": 3029,
      "OP": 3030,
      "Ġindepend": 3031,
      "ification": 3032,
      "Ġimage": 3033,
      "Ġachie": 3034,
      "Ġ2009": 3035,
      "come": 3036,
      "oo": 3037,
      "ecause": 3038,
      "Ġdoll": 3039,
      "Ġ2008": 3040,
      "Ġfeatures": 3041,
      "ille": 3042,
      "Ġaddition": 3043,
      "ĠHer": 3044,
      "ĠCenter": 3045,
      "raq": 3046,
      "ED": 3047,
      "eth": 3048,
      "Ġveh": 3049,
      "Ġconduct": 3050,
      "Ġmach": 3051,
      "AC": 3052,
      "ondon": 3053,
      "aries": 3054,
      "Ġsort": 3055,
      "Ġlevels": 3056,
      "Ġsexual": 3057,
      "Ġconserv": 3058,
      "Ġrules": 3059,
      "ĠParty": 3060,
      "99": 3061,
      "room": 3062,
      "ĠTex": 3063,
      "Ġslow": 3064,
      "ams": 3065,
      "Ġsafe": 3066,
      "Ġstar": 3067,
      "ysis": 3068,
      "king": 3069,
      "Tr": 3070,
      "wo": 3071,
      "rench": 3072,
      "Ġtalking": 3073,
      "Ġjobs": 3074,
      "icles": 3075,
      "ĠPat": 3076,
      "Ġgas": 3077,
      "Ġbox": 3078,
      "ĠDonald": 3079,
      "uit": 3080,
      "Ġpen": 3081,
      "idge": 3082,
      "Ġreb": 3083,
      "imately": 3084,
      "Ġ*": 3085,
      "Ġinvestigation": 3086,
      "ges": 3087,
      "Ġpaper": 3088,
      "atform": 3089,
      "US": 3090,
      "Ġhear": 3091,
      "het": 3092,
      "ĠRom": 3093,
      "Ġsystems": 3094,
      "Ġcard": 3095,
      "tr": 3096,
      "Ġcross": 3097,
      "Ġuser": 3098,
      "Ġspokes": 3099,
      "IT": 3100,
      "rast": 3101,
      "lear": 3102,
      "Ġprotest": 3103,
      "ope": 3104,
      "ĠPar": 3105,
      "ĠStreet": 3106,
      "Ġparents": 3107,
      "Ġson": 3108,
      "IC": 3109,
      "unk": 3110,
      "Ġinn": 3111,
      "eared": 3112,
      "Ġextreme": 3113,
      "anced": 3114,
      "Ġprior": 3115,
      "ĠSenate": 3116,
      "Ġprevent": 3117,
      "Ġcritic": 3118,
      "Ġclimate": 3119,
      "abor": 3120,
      "Ġcoach": 3121,
      "Ġserious": 3122,
      "Ġwritten": 3123,
      "Ġincreasing": 3124,
      "Ġseven": 3125,
      "ĠKe": 3126,
      "ĠIraq": 3127,
      "Ġdespite": 3128,
      "Ġcompletely": 3129,
      "vertisement": 3130,
      "ĠRussian": 3131,
      "Ġnatural": 3132,
      "Ġsurve": 3133,
      "nces": 3134,
      "Ġblood": 3135,
      "Ġguy": 3136,
      "Ġmajority": 3137,
      "Ġeight": 3138,
      "reedom": 3139,
      "ani": 3140,
      "Ġexperien": 3141,
      "sych": 3142,
      "vent": 3143,
      "Ġdocument": 3144,
      "elligence": 3145,
      "22": 3146,
      "Ġstories": 3147,
      "ĠEm": 3148,
      "Ġrange": 3149,
      "Ġaren": 3150,
      "Ġund": 3151,
      "Ġimmig": 3152,
      "Ġscience": 3153,
      "ruary": 3154,
      "Ġextra": 3155,
      "Ġjournal": 3156,
      "Ġregul": 3157,
      "Ġclaims": 3158,
      "entially": 3159,
      "itch": 3160,
      "ining": 3161,
      "Ġrequired": 3162,
      "Ġ27": 3163,
      "asc": 3164,
      "Ġbiggest": 3165,
      "Ġopportunity": 3166,
      "ico": 3167,
      "ny": 3168,
      "light": 3169,
      "akers": 3170,
      "ĠMcC": 3171,
      "][": 3172,
      "Ġobv": 3173,
      "Ġeffort": 3174,
      "Ġdraw": 3175,
      "Ġtable": 3176,
      "Ġ28": 3177,
      "ux": 3178,
      "Ġinteresting": 3179,
      "Ġdescribed": 3180,
      "lying": 3181,
      "Ġviolence": 3182,
      "Ġpaid": 3183,
      "She": 3184,
      "Ġofficers": 3185,
      "Ġpractice": 3186,
      "Ġones": 3187,
      "Ġquality": 3188,
      "Ġclos": 3189,
      "Ġexactly": 3190,
      "ha": 3191,
      "pper": 3192,
      "ension": 3193,
      "Ġparticularly": 3194,
      "Ġstuff": 3195,
      "uf": 3196,
      "add": 3197,
      "Ġcosts": 3198,
      "Ġscreen": 3199,
      "Ġcertainly": 3200,
      "Ġmessage": 3201,
      "Ġcarry": 3202,
      "ĠLondon": 3203,
      "illed": 3204,
      "Ġmovie": 3205,
      "Ġmiddle": 3206,
      "ĠSaturday": 3207,
      "Ġimag": 3208,
      "Ġdamage": 3209,
      "Ġdoub": 3210,
      "ĠSand": 3211,
      "ously": 3212,
      "No": 3213,
      "ett": 3214,
      "Ġeducation": 3215,
      "Ġdetails": 3216,
      "fort": 3217,
      "iring": 3218,
      "arr": 3219,
      "ari": 3220,
      "ĠMuslim": 3221,
      "isions": 3222,
      "Ġprison": 3223,
      "inally": 3224,
      "Ġmodern": 3225,
      "Ġsn": 3226,
      "Ġterm": 3227,
      "Ġincreased": 3228,
      "erve": 3229,
      "Ġanswer": 3230,
      "24": 3231,
      "ĠSpe": 3232,
      "aves": 3233,
      "Ġattacks": 3234,
      "Ġremain": 3235,
      "Ġult": 3236,
      "Ġlooked": 3237,
      "Ġhistor": 3238,
      "utions": 3239,
      "ables": 3240,
      "AM": 3241,
      "Ġcommunic": 3242,
      "Ġaw": 3243,
      "Ġchanged": 3244,
      "Ġ...": 3245,
      "yl": 3246,
      "ĠSoc": 3247,
      "Ġleading": 3248,
      "Ġremains": 3249,
      "Ġconvers": 3250,
      "Ġoccur": 3251,
      "ospital": 3252,
      "inary": 3253,
      "Ġsens": 3254,
      "Ġhundred": 3255,
      "Ġdefense": 3256,
      "Ġexcept": 3257,
      "Ġsociety": 3258,
      "ĠMore": 3259,
      "Ġ26": 3260,
      "iles": 3261,
      "Ġgiving": 3262,
      "Ġready": 3263,
      "Ġfinally": 3264,
      "coin": 3265,
      "Ġsometimes": 3266,
      "ĠMark": 3267,
      "Ġpoor": 3268,
      "Ġsummer": 3269,
      "icks": 3270,
      "Ġsubst": 3271,
      "Ġnamed": 3272,
      "Ġsurv": 3273,
      "Ġfit": 3274,
      "Ġchief": 3275,
      "de": 3276,
      "ĠTur": 3277,
      "Ġpath": 3278,
      "rowd": 3279,
      "ãģ": 3280,
      "ĠNet": 3281,
      "Ġlay": 3282,
      "tain": 3283,
      "Ġpurch": 3284,
      "ĠEast": 3285,
      "Ġdanger": 3286,
      "Ġwouldn": 3287,
      "Ġfix": 3288,
      "Ġrout": 3289,
      "ĠRepublicans": 3290,
      "aught": 3291,
      "oul": 3292,
      "Ġgrowing": 3293,
      "ĠIran": 3294,
      "Ġscene": 3295,
      "Ġprovided": 3296,
      "Ġproducts": 3297,
      "Ġshowed": 3298,
      "Ġcontinued": 3299,
      "Ġstarting": 3300,
      "Ġquarter": 3301,
      "OT": 3302,
      "Ġdemonst": 3303,
      "ĠEven": 3304,
      "80": 3305,
      "Ġpurp": 3306,
      "Ġâ": 3307,
      "zz": 3308,
      "ĠDes": 3309,
      "ĠMor": 3310,
      "hib": 3311,
      "ĠâĢ¦": 3312,
      "ĠIndian": 3313,
      "orge": 3314,
      "hest": 3315,
      "ida": 3316,
      "FL": 3317,
      "Ġalthough": 3318,
      "ĠMichael": 3319,
      "Ġmob": 3320,
      "Im": 3321,
      "ĠFebruary": 3322,
      "Ġspeech": 3323,
      "Ġmultiple": 3324,
      "Ġcrim": 3325,
      "ĠGener": 3326,
      "Ġcomments": 3327,
      "Ġban": 3328,
      "Ġdied": 3329,
      "Ġ(@": 3330,
      "Ġparts": 3331,
      "Ġalone": 3332,
      "imum": 3333,
      "Ġregion": 3334,
      "Ġbeyond": 3335,
      "erc": 3336,
      "Ġcamer": 3337,
      "Ġpan": 3338,
      "Ġselect": 3339,
      "mitted": 3340,
      "Ġstandard": 3341,
      "ĠTexas": 3342,
      "Ġstudent": 3343,
      "Ġspot": 3344,
      "Ġwriting": 3345,
      "enge": 3346,
      "Ġavoid": 3347,
      "Ġperhaps": 3348,
      "Ġmill": 3349,
      "ĠDemocratic": 3350,
      "Ġdirectly": 3351,
      "Ġwrite": 3352,
      "Ġgone": 3353,
      "Ġusually": 3354,
      "Ġkids": 3355,
      "Ġefforts": 3356,
      "ems": 3357,
      "inese": 3358,
      "icated": 3359,
      "Ġtowards": 3360,
      "berg": 3361,
      "Ġcalls": 3362,
      "Ġadditional": 3363,
      "Ġreading": 3364,
      "Ġthinking": 3365,
      "Ġimplement": 3366,
      "Ġassist": 3367,
      "astic": 3368,
      "Ġplatform": 3369,
      "Ġguys": 3370,
      "ĠLeague": 3371,
      "oses": 3372,
      "Ġcouldn": 3373,
      "ĠFirst": 3374,
      "My": 3375,
      "ĠBill": 3376,
      "Ġbrain": 3377,
      "Ġsil": 3378,
      "Ġvoters": 3379,
      "Ġchalleng": 3380,
      "uclear": 3381,
      "Ġscore": 3382,
      "Ġ>": 3383,
      "ĠCons": 3384,
      "Ġswe": 3385,
      "rate": 3386,
      "pre": 3387,
      "Ġconsist": 3388,
      "Ġcomplex": 3389,
      "itute": 3390,
      "aly": 3391,
      "Ġtro": 3392,
      "Ġunf": 3393,
      "Ġeffects": 3394,
      "Ġil": 3395,
      "anch": 3396,
      "aming": 3397,
      "ĠCoun": 3398,
      "Ġofficer": 3399,
      "ford": 3400,
      "Ġepis": 3401,
      "Ġimmediately": 3402,
      "urt": 3403,
      "using": 3404,
      "Ġcenter": 3405,
      "itor": 3406,
      "emy": 3407,
      "All": 3408,
      "ara": 3409,
      "ago": 3410,
      "Ġconcept": 3411,
      "Ġchoice": 3412,
      "Ġcele": 3413,
      "Ġhous": 3414,
      "olute": 3415,
      "inated": 3416,
      "Ġremember": 3417,
      "Ġver": 3418,
      "Ġsle": 3419,
      "rupt": 3420,
      "urg": 3421,
      "Ġresearc": 3422,
      "Ġculture": 3423,
      "Ġrelative": 3424,
      "Ġdifference": 3425,
      "Ġpiece": 3426,
      "Ġproperty": 3427,
      "Ġrecomm": 3428,
      "Ġahead": 3429,
      "arian": 3430,
      "23": 3431,
      "Ġfile": 3432,
      "Ġthroughout": 3433,
      "Ġagency": 3434,
      "Ġincludes": 3435,
      "Ġearn": 3436,
      "Ġsafety": 3437,
      "Ġtoward": 3438,
      "Ġwife": 3439,
      "Ġreality": 3440,
      "Ġconditions": 3441,
      "oes": 3442,
      "ĠJames": 3443,
      "oper": 3444,
      "wise": 3445,
      "ĠTH": 3446,
      "airs": 3447,
      "Now": 3448,
      "ibr": 3449,
      "ĠServ": 3450,
      "atever": 3451,
      "Ġletter": 3452,
      "Ġten": 3453,
      "iment": 3454,
      "ĠSim": 3455,
      "Ġopin": 3456,
      "Ġdark": 3457,
      "Ġdog": 3458,
      "ĠWilliam": 3459,
      "Re": 3460,
      "ĠInt": 3461,
      "ĠThen": 3462,
      "Ġsuspect": 3463,
      "Ġmeaning": 3464,
      "Ġprec": 3465,
      "ston": 3466,
      "ĠChe": 3467,
      "ĠMinister": 3468,
      "Ġsell": 3469,
      "Ġestim": 3470,
      "Ġbattle": 3471,
      "Ġdate": 3472,
      "aughter": 3473,
      "Ġmyself": 3474,
      "AD": 3475,
      "Ġnature": 3476,
      "Ġfigure": 3477,
      "ĠJack": 3478,
      "just": 3479,
      "ĠDemocrats": 3480,
      "ban": 3481,
      "Ġpassed": 3482,
      "arning": 3483,
      "Ġ60": 3484,
      "Ġdesigned": 3485,
      "Ġcast": 3486,
      "Ġblog": 3487,
      "Ġeyes": 3488,
      "Ġfootball": 3489,
      "more": 3490,
      "ament": 3491,
      "BI": 3492,
      "Ġreceive": 3493,
      "new": 3494,
      "Ġdeg": 3495,
      "Ġhelped": 3496,
      "Ġappears": 3497,
      "Ġcounter": 3498,
      "?\"": 3499,
      "Ġwall": 3500,
      "Ġmoving": 3501,
      "Ġrob": 3502,
      "Ġign": 3503,
      "Ġoption": 3504,
      "Ġthousands": 3505,
      "Ġstra": 3506,
      "ilies": 3507,
      "Ġalleged": 3508,
      "Ġband": 3509,
      "Ġbudget": 3510,
      "ĠSer": 3511,
      "aches": 3512,
      "Ġdisapp": 3513,
      "ports": 3514,
      "men": 3515,
      "Ġrock": 3516,
      "Ġnom": 3517,
      "Ġtwe": 3518,
      "Ġsat": 3519,
      "Ġcorpor": 3520,
      "Ġtouch": 3521,
      "ĠOff": 3522,
      "ĠBo": 3523,
      "Ġpressure": 3524,
      "Ġdebate": 3525,
      "Ġbeginning": 3526,
      "Ġdisp": 3527,
      "Ġmoved": 3528,
      "ĠFrench": 3529,
      "yan": 3530,
      "Ġcris": 3531,
      "ÂŃ": 3532,
      "ĠII": 3533,
      "Ġcommand": 3534,
      "Ġstage": 3535,
      "irth": 3536,
      "ĠChinese": 3537,
      "ĠMart": 3538,
      "ester": 3539,
      "Ġhappy": 3540,
      "roy": 3541,
      "Ġorganization": 3542,
      "Ġut": 3543,
      "ocked": 3544,
      "Ġcrowd": 3545,
      "Ġreasons": 3546,
      "ĠMon": 3547,
      "Ġcompared": 3548,
      "ĠDay": 3549,
      "ĠGreen": 3550,
      "Ġaim": 3551,
      "ampions": 3552,
      "Ġdevice": 3553,
      "Ġpowerful": 3554,
      "Ġclean": 3555,
      "Ġcat": 3556,
      "Ġsche": 3557,
      "Ġfan": 3558,
      "Ġcitizens": 3559,
      "rief": 3560,
      "Ġcredit": 3561,
      "Ġtreatment": 3562,
      "Ġshown": 3563,
      "omen": 3564,
      "Ġmaybe": 3565,
      "ĠAssoci": 3566,
      "ĠApple": 3567,
      "Ġnecessary": 3568,
      "Ġencour": 3569,
      "iable": 3570,
      "Ġcopy": 3571,
      "Ġbal": 3572,
      "enty": 3573,
      "ĠRober": 3574,
      "ET": 3575,
      "wood": 3576,
      "Ġforced": 3577,
      "Ġfollowed": 3578,
      "Ġcentury": 3579,
      "Ġstreng": 3580,
      "ĠEnglish": 3581,
      "Ġtour": 3582,
      "Ġcontribut": 3583,
      "bum": 3584,
      "35": 3585,
      "45": 3586,
      "Ġlaunch": 3587,
      "cient": 3588,
      "ube": 3589,
      "ivity": 3590,
      "itation": 3591,
      "Ġspending": 3592,
      "Ġoverall": 3593,
      "27": 3594,
      "Ġconfir": 3595,
      "agon": 3596,
      "ĠJe": 3597,
      "Ġesc": 3598,
      "Ġexecutive": 3599,
      "Ġbott": 3600,
      "Ġdoor": 3601,
      "Ġmix": 3602,
      "Ġdrive": 3603,
      "lease": 3604,
      "Ġanalysis": 3605,
      "Ġmeant": 3606,
      "cul": 3607,
      "ĠSuper": 3608,
      "ĠBer": 3609,
      "ĠOf": 3610,
      "Ġtrust": 3611,
      "orks": 3612,
      "Ġcollege": 3613,
      "Ġcomputer": 3614,
      "Ġpark": 3615,
      "ĠHere": 3616,
      "Ġcandidate": 3617,
      "Ġconference": 3618,
      "Ġtitle": 3619,
      "AP": 3620,
      "ĠVal": 3621,
      "Ġideas": 3622,
      "Ġsmart": 3623,
      "Ġleague": 3624,
      "Ġ29": 3625,
      "urance": 3626,
      "Ġcool": 3627,
      "Ġautom": 3628,
      "Is": 3629,
      "Ġdetail": 3630,
      "Ġfailed": 3631,
      "htt": 3632,
      "Ġyourself": 3633,
      "Ġhar": 3634,
      "ĠBen": 3635,
      "Be": 3636,
      "Ġdise": 3637,
      "ero": 3638,
      "ĠPlay": 3639,
      "Ġbenefits": 3640,
      "Ġsal": 3641,
      "Ġsusp": 3642,
      "ĠHam": 3643,
      "Ġsoftware": 3644,
      "Ġlargest": 3645,
      "Pro": 3646,
      "Ġeventually": 3647,
      "Ġschools": 3648,
      "Ġthrow": 3649,
      "Ġlimited": 3650,
      "Ġdraft": 3651,
      "Ġpositive": 3652,
      "ĠRich": 3653,
      "ufact": 3654,
      "Ġpresidential": 3655,
      "Ġfirm": 3656,
      "Ġaltern": 3657,
      "Ġanaly": 3658,
      "Ar": 3659,
      "Ġcrime": 3660,
      "band": 3661,
      "www": 3662,
      "board": 3663,
      "ĠEU": 3664,
      "orney": 3665,
      "ID": 3666,
      "Ġrap": 3667,
      "Ġactions": 3668,
      "Ġ196": 3669,
      "New": 3670,
      "Advertisement": 3671,
      "Ġilleg": 3672,
      "ĠTor": 3673,
      "Ġpus": 3674,
      "ĠGovern": 3675,
      "dom": 3676,
      "Ġgives": 3677,
      "Ġallows": 3678,
      "Ġbeaut": 3679,
      "ares": 3680,
      "Ġcorrect": 3681,
      "Ġ2007": 3682,
      "Ġeasily": 3683,
      "aint": 3684,
      "Ġrates": 3685,
      "Ġincome": 3686,
      "Ġdisplay": 3687,
      "Ġpolitics": 3688,
      "Ġfamilies": 3689,
      "Ġappeared": 3690,
      "owers": 3691,
      "Ġrefer": 3692,
      "Ġphysical": 3693,
      "Ġcentral": 3694,
      "ocks": 3695,
      "Un": 3696,
      "Ġstudies": 3697,
      "EC": 3698,
      "Ġ;": 3699,
      "Ġaware": 3700,
      "ken": 3701,
      "venue": 3702,
      "ĠAustralia": 3703,
      "Ġdeveloped": 3704,
      "craft": 3705,
      "pir": 3706,
      "ĠAP": 3707,
      "Ġcharacters": 3708,
      "ĠArab": 3709,
      "Ġsigned": 3710,
      "Ġweapons": 3711,
      "ĠAM": 3712,
      "Ġsto": 3713,
      "ĠMex": 3714,
      "Ġpsych": 3715,
      "ĠNe": 3716,
      "encies": 3717,
      "Ġgrad": 3718,
      "ki": 3719,
      "Ġreligious": 3720,
      "ĠBel": 3721,
      "Ġcontinues": 3722,
      "ĠSyria": 3723,
      "ĠAir": 3724,
      "Ġgold": 3725,
      "box": 3726,
      "Ġcharge": 3727,
      "ĠGermany": 3728,
      "Ġtruth": 3729,
      "Ġspir": 3730,
      "According": 3731,
      "Ġnoted": 3732,
      "iance": 3733,
      "ĠInternational": 3734,
      "Ġuses": 3735,
      "nown": 3736,
      "etro": 3737,
      "Ġnuclear": 3738,
      "Ġmeasure": 3739,
      "ser": 3740,
      "Ġcolor": 3741,
      "onents": 3742,
      "ĠStar": 3743,
      "Ġbooks": 3744,
      "ado": 3745,
      "erved": 3746,
      "uty": 3747,
      "Ġdecades": 3748,
      "Ġknowledge": 3749,
      "Ġprograms": 3750,
      "itely": 3751,
      "Ġarch": 3752,
      "ĠSmith": 3753,
      "Ġlif": 3754,
      "Ġgoals": 3755,
      "Ġemot": 3756,
      "bon": 3757,
      "ĠEarth": 3758,
      "ĠJer": 3759,
      "Ġfeature": 3760,
      "Ġcrisis": 3761,
      "ĠBrown": 3762,
      "Ġnice": 3763,
      "roll": 3764,
      "Ġshooting": 3765,
      "Ġstraight": 3766,
      "Ġpreviously": 3767,
      "Ġfeed": 3768,
      "Ġsenior": 3769,
      "ĠPolice": 3770,
      "Ġunique": 3771,
      "ĠMac": 3772,
      "ĠComp": 3773,
      "iny": 3774,
      "Ġadvant": 3775,
      "ĠLa": 3776,
      "Ġknows": 3777,
      "Ġvac": 3778,
      "inn": 3779,
      "):": 3780,
      "Ġmist": 3781,
      "net": 3782,
      "Ġlic": 3783,
      "Ġapparent": 3784,
      "Ġfeet": 3785,
      "Ġactivity": 3786,
      "ĠBre": 3787,
      "Ġlarger": 3788,
      "Ġpeace": 3789,
      "osh": 3790,
      "By": 3791,
      "Ġpromot": 3792,
      "________": 3793,
      "Some": 3794,
      "ĠAngel": 3795,
      "Ġchallenge": 3796,
      "secut": 3797,
      "ĠRec": 3798,
      "onent": 3799,
      "orter": 3800,
      "levision": 3801,
      "Ġemb": 3802,
      "Ġexpand": 3803,
      "Ġminor": 3804,
      "ĠAnt": 3805,
      "Ġarm": 3806,
      "change": 3807,
      "Ġfrequ": 3808,
      "Ġincident": 3809,
      "26": 3810,
      "antly": 3811,
      "rs": 3812,
      "Ġang": 3813,
      "Ġprem": 3814,
      "Ġpatients": 3815,
      "Ġplaces": 3816,
      "Ġreform": 3817,
      "Ġrelated": 3818,
      "Don": 3819,
      "resh": 3820,
      "Ġgreater": 3821,
      "ĠDis": 3822,
      "Ġhighly": 3823,
      "Ġsuccessful": 3824,
      "ĠSchool": 3825,
      "Ġmanager": 3826,
      "Ġplant": 3827,
      "Ġprojects": 3828,
      "while": 3829,
      "Ġrule": 3830,
      "Ġprimary": 3831,
      "Ġalbum": 3832,
      "ĠFranc": 3833,
      "Ġfully": 3834,
      "Ġlines": 3835,
      "Ġstatus": 3836,
      "Ġseemed": 3837,
      "Ġagg": 3838,
      "Ġsales": 3839,
      "vere": 3840,
      "ville": 3841,
      "ĠWind": 3842,
      "attle": 3843,
      "Ġdetermin": 3844,
      "Ġattract": 3845,
      "Ġrare": 3846,
      "29": 3847,
      "ĠÂ£": 3848,
      "Ġfavorite": 3849,
      "Ġcustomers": 3850,
      "OM": 3851,
      "Ġfine": 3852,
      "Ġtrou": 3853,
      "cont": 3854,
      "Ġreached": 3855,
      "100": 3856,
      "Ġsave": 3857,
      "chan": 3858,
      "Ġresources": 3859,
      "ĠFrom": 3860,
      "spect": 3861,
      "Ġspend": 3862,
      "Ġsend": 3863,
      "inger": 3864,
      "Ġprices": 3865,
      "28": 3866,
      "ĠCouncil": 3867,
      "Ġclearly": 3868,
      "Ġnote": 3869,
      "iled": 3870,
      "Ġbrother": 3871,
      "Ġfighting": 3872,
      "Ġgreen": 3873,
      "Ġconflic": 3874,
      "Ġindividuals": 3875,
      "uana": 3876,
      "ĠEngland": 3877,
      "oday": 3878,
      "riage": 3879,
      "70": 3880,
      "Ġprint": 3881,
      "iced": 3882,
      "Ġ=>": 3883,
      "âĢĿ,": 3884,
      "Ġshut": 3885,
      "Ġmanufact": 3886,
      "Ġkept": 3887,
      "Cl": 3888,
      "iders": 3889,
      "Ġliter": 3890,
      "Ġhaven": 3891,
      "ĠDef": 3892,
      "Ġwilling": 3893,
      "ength": 3894,
      "ounds": 3895,
      "Ġfunding": 3896,
      "mar": 3897,
      "Ġweb": 3898,
      "âĢĶâĢĶ": 3899,
      "icit": 3900,
      "ĠHigh": 3901,
      "Ġnormal": 3902,
      "Ġintelligence": 3903,
      "Ġrise": 3904,
      "aud": 3905,
      "oti": 3906,
      "ĠChristian": 3907,
      "ĠGeneral": 3908,
      "Ġdebt": 3909,
      "Ġvoice": 3910,
      "part": 3911,
      "Ġpredict": 3912,
      "ifying": 3913,
      "Ġregular": 3914,
      "Ġcalling": 3915,
      "Ġbasic": 3916,
      "Ġabsolute": 3917,
      "Ġresearchers": 3918,
      "ijuana": 3919,
      "ota": 3920,
      "Ġowners": 3921,
      "uing": 3922,
      "wide": 3923,
      "Ġnames": 3924,
      "Ġended": 3925,
      "Ġreflect": 3926,
      "Ġadding": 3927,
      "Ġpolicies": 3928,
      "Ġcriminal": 3929,
      "acing": 3930,
      "ĠPM": 3931,
      "Ġauthorities": 3932,
      "term": 3933,
      "Ġx": 3934,
      "ica": 3935,
      "ĠUnion": 3936,
      "ĠFlor": 3937,
      "Ġinteg": 3938,
      "ĠInternet": 3939,
      "ING": 3940,
      "Ġcities": 3941,
      ".âĢĻ": 3942,
      "Ġcharges": 3943,
      "sey": 3944,
      "rol": 3945,
      "Ġpun": 3946,
      "Not": 3947,
      "Ġspread": 3948,
      "Ġprogress": 3949,
      "Ġcommer": 3950,
      "Ġborder": 3951,
      "Ġacqu": 3952,
      "Ġfemale": 3953,
      "Ġhospital": 3954,
      "Ġgrand": 3955,
      "IA": 3956,
      "Ġpush": 3957,
      "Ġweight": 3958,
      "olic": 3959,
      "Ġseeing": 3960,
      "Ġclaimed": 3961,
      "Ġslight": 3962,
      "Ġraised": 3963,
      "EO": 3964,
      "pen": 3965,
      "ĠScott": 3966,
      "ĠUp": 3967,
      "ĠGeorge": 3968,
      "miss": 3969,
      "uman": 3970,
      "ĠTom": 3971,
      "ĠRob": 3972,
      "Ġvalues": 3973,
      "Ġfa": 3974,
      "Ġminister": 3975,
      "Ġtraditional": 3976,
      "Ġoffered": 3977,
      "alse": 3978,
      "Ġsupposed": 3979,
      "21": 3980,
      "ipp": 3981,
      "mittee": 3982,
      "que": 3983,
      "ĠEvery": 3984,
      "Ġcry": 3985,
      "Ġcreating": 3986,
      "Ġcaused": 3987,
      "ĠDist": 3988,
      "itness": 3989,
      "icago": 3990,
      "Ġele": 3991,
      "Ġorganiz": 3992,
      "ĠStud": 3993,
      "Ġweekend": 3994,
      "ya": 3995,
      "rian": 3996,
      "33": 3997,
      "earch": 3998,
      "Ġlik": 3999,
      "Ġbeat": 4000,
      "Ġhappens": 4001,
      "Ġoptions": 4002,
      "IL": 4003,
      "Ġsources": 4004,
      "Ġlaun": 4005,
      "Ġagreement": 4006,
      "Ġimpl": 4007,
      "Ġvirt": 4008,
      "Ġconcerns": 4009,
      "Ġbeg": 4010,
      "ection": 4011,
      "ribution": 4012,
      "Ġappl": 4013,
      "Ġwait": 4014,
      "Ġrank": 4015,
      "Ġleaving": 4016,
      "90": 4017,
      "roid": 4018,
      "ĠGold": 4019,
      "ĠMag": 4020,
      "itude": 4021,
      "mission": 4022,
      "AA": 4023,
      "azing": 4024,
      "ĠÐ": 4025,
      "Ġemployees": 4026,
      "Here": 4027,
      "Ġmer": 4028,
      "Ġjump": 4029,
      "Ġarrested": 4030,
      "usion": 4031,
      "lick": 4032,
      "Ġtemper": 4033,
      "cher": 4034,
      "Ġstation": 4035,
      "EL": 4036,
      "Ġstyle": 4037,
      "Ġscen": 4038,
      "Ġactual": 4039,
      "Ġlawy": 4040,
      "ĠWell": 4041,
      "OU": 4042,
      "Ġteac": 4043,
      "Ġsolution": 4044,
      "ona": 4045,
      "rant": 4046,
      "iverse": 4047,
      "Ġwhatever": 4048,
      "ĠMat": 4049,
      "Ġchoose": 4050,
      "Ġjudge": 4051,
      "istry": 4052,
      "ĠMost": 4053,
      "Ġposted": 4054,
      ".'": 4055,
      "ĠPort": 4056,
      "ription": 4057,
      "ipped": 4058,
      "icians": 4059,
      "Ġparties": 4060,
      "ĠCommission": 4061,
      "Ġir": 4062,
      "ĠHillary": 4063,
      "mark": 4064,
      "Ġwonder": 4065,
      "Ġtend": 4066,
      "Ġfreedom": 4067,
      "Con": 4068,
      "vest": 4069,
      "Ġbirth": 4070,
      "Ġrevealed": 4071,
      "Ġenforce": 4072,
      "rog": 4073,
      "see": 4074,
      "ĠAccording": 4075,
      "Ġstrate": 4076,
      "ĠOh": 4077,
      "aked": 4078,
      "ĠBit": 4079,
      "Ġopposition": 4080,
      "Ġdire": 4081,
      "Ġcoal": 4082,
      "Ġqual": 4083,
      "Ġdevices": 4084,
      "Ġstreet": 4085,
      "Ġstrategy": 4086,
      "Ġmostly": 4087,
      "pri": 4088,
      "Ġproduce": 4089,
      "ĠReg": 4090,
      "Ġrecords": 4091,
      "ĠHealth": 4092,
      "Ġbelieved": 4093,
      "Ġassault": 4094,
      "Ġmassive": 4095,
      "Ġhttp": 4096,
      "Ġmemory": 4097,
      "Ġconfirmed": 4098,
      "Ġadop": 4099,
      "Ġruns": 4100,
      "oly": 4101,
      "ĠLet": 4102,
      "Ġadult": 4103,
      "Ġlose": 4104,
      "Ġestabl": 4105,
      "Ġlearning": 4106,
      "ĠFrance": 4107,
      "ĠLab": 4108,
      "Ġwhom": 4109,
      "Sc": 4110,
      "Get": 4111,
      "Ġeth": 4112,
      "Ġlearned": 4113,
      "Ġetc": 4114,
      "amb": 4115,
      "ĠPalest": 4116,
      "Ġmission": 4117,
      "ĠFlorida": 4118,
      "Ġmount": 4119,
      "Ġpicture": 4120,
      "Ġoperations": 4121,
      "500": 4122,
      "edy": 4123,
      "ocr": 4124,
      "Ġapplication": 4125,
      "arliam": 4126,
      "ĠBay": 4127,
      "ĠLaw": 4128,
      "Ġdollars": 4129,
      "ae": 4130,
      "igned": 4131,
      "Ġcars": 4132,
      "Ġrestrict": 4133,
      "Ġbehavior": 4134,
      "Ġmechan": 4135,
      "Ġproduced": 4136,
      "Ġinstall": 4137,
      "Ġresidents": 4138,
      "Ġdigital": 4139,
      "Ġwat": 4140,
      "uild": 4141,
      "ĠMod": 4142,
      "ords": 4143,
      "Ġfat": 4144,
      "Ġcondition": 4145,
      "Ġfeeling": 4146,
      "Ġpropos": 4147,
      "Ġensure": 4148,
      "Ġvs": 4149,
      "ĠPress": 4150,
      "ĠSun": 4151,
      "Ġuns": 4152,
      "Ġarg": 4153,
      "orial": 4154,
      "soft": 4155,
      "44": 4156,
      "mine": 4157,
      "Ġresponsible": 4158,
      "no": 4159,
      "ugg": 4160,
      "=\"": 4161,
      "oles": 4162,
      "Ġhighest": 4163,
      "rig": 4164,
      "ties": 4165,
      "Ġdrink": 4166,
      "arliament": 4167,
      "ĠAlex": 4168,
      "Ġcritical": 4169,
      "Ġimages": 4170,
      "Ġasking": 4171,
      "Ex": 4172,
      "Ġshowing": 4173,
      "....": 4174,
      "Ġbenefit": 4175,
      "Ġtick": 4176,
      "ĠTrans": 4177,
      "win": 4178,
      "Ġbrief": 4179,
      "Ġprovides": 4180,
      "ĠCommittee": 4181,
      "Ġdram": 4182,
      "Ġeye": 4183,
      "Ġsection": 4184,
      "Ġcru": 4185,
      "ĠMo": 4186,
      "Ġtelevision": 4187,
      "Ġinfluence": 4188,
      "Ġhero": 4189,
      "ĠAdd": 4190,
      "ront": 4191,
      "Ġmur": 4192,
      "ĠSam": 4193,
      "However": 4194,
      "Ġchem": 4195,
      "outhern": 4196,
      "iation": 4197,
      "ĠGet": 4198,
      "ĠMike": 4199,
      "Ġadvoc": 4200,
      "Ġtrain": 4201,
      "ĠKorea": 4202,
      "ĠLou": 4203,
      "Ġeffic": 4204,
      "ĠPhil": 4205,
      "Ġtypes": 4206,
      "asion": 4207,
      "Ġcore": 4208,
      "ĠPeople": 4209,
      "FC": 4210,
      "ĠSecret": 4211,
      "Ġagreed": 4212,
      "ĠJustice": 4213,
      "Ġassociated": 4214,
      "Ġcelebr": 4215,
      "ĠBush": 4216,
      "Ġbrand": 4217,
      "Ġ35": 4218,
      "Ġworse": 4219,
      "Ġindependent": 4220,
      "rav": 4221,
      "Ġmarijuana": 4222,
      "ĠChicago": 4223,
      "Ġinterested": 4224,
      "mm": 4225,
      "ĠWhy": 4226,
      "point": 4227,
      "BS": 4228,
      "Mr": 4229,
      "ĠOther": 4230,
      "ented": 4231,
      "ags": 4232,
      "Ġmillions": 4233,
      "Ġwild": 4234,
      "Ġproposed": 4235,
      "Ġvill": 4236,
      "aby": 4237,
      "ĠÃ": 4238,
      "ios": 4239,
      "âĢ¢": 4240,
      "cience": 4241,
      "Ġdaily": 4242,
      "uries": 4243,
      "rial": 4244,
      "iling": 4245,
      "udd": 4246,
      "----------------": 4247,
      "cell": 4248,
      "bert": 4249,
      "Ġmicro": 4250,
      "Ġcomfort": 4251,
      "Ġenter": 4252,
      "Ġoffers": 4253,
      "Ġeffective": 4254,
      "itt": 4255,
      "Ġnegoti": 4256,
      "ading": 4257,
      "These": 4258,
      "Ġdream": 4259,
      "ste": 4260,
      "Ġopening": 4261,
      "estic": 4262,
      "ĠNFL": 4263,
      "Ġunc": 4264,
      "Ġexplained": 4265,
      "Ġdouble": 4266,
      "Ġdefe": 4267,
      "Ġlegislation": 4268,
      "Ġmale": 4269,
      "ĠFound": 4270,
      "Ġbur": 4271,
      "Ġchair": 4272,
      "Ġpattern": 4273,
      "ĠFrancis": 4274,
      "Ġachieve": 4275,
      "Ġframe": 4276,
      "iful": 4277,
      "Ġadvantage": 4278,
      "Ġlimit": 4279,
      "known": 4280,
      "ĠGreat": 4281,
      "Ġteach": 4282,
      "ĠWall": 4283,
      "Ġkick": 4284,
      "ghan": 4285,
      "Ġelectric": 4286,
      "Ġopinion": 4287,
      "Ġbecomes": 4288,
      "Ġunderstanding": 4289,
      "ST": 4290,
      "Ġannounce": 4291,
      "Ġbottom": 4292,
      "Ġsleep": 4293,
      "Ġscientists": 4294,
      "rants": 4295,
      "Ġgenerally": 4296,
      "ĠBecause": 4297,
      "ĠOffice": 4298,
      "house": 4299,
      "Ġinvestment": 4300,
      "Ġlocation": 4301,
      "Ġspecies": 4302,
      "Ġdestroy": 4303,
      "Ġopened": 4304,
      "ĠSecurity": 4305,
      "ander": 4306,
      "odes": 4307,
      "SA": 4308,
      "Ġinitial": 4309,
      "Ġdistrict": 4310,
      "Ġeasier": 4311,
      "Ġreduce": 4312,
      "ipe": 4313,
      "Ġice": 4314,
      "ears": 4315,
      "Ġdefend": 4316,
      "Ġheavy": 4317,
      "icip": 4318,
      "Ġmachine": 4319,
      "Ġmanagement": 4320,
      "gency": 4321,
      "illing": 4322,
      "Ġshared": 4323,
      "Ġunlike": 4324,
      "Ġhundreds": 4325,
      "Ġthus": 4326,
      "Ġmiles": 4327,
      "ĠMicro": 4328,
      "Ġphoto": 4329,
      "Ġbasis": 4330,
      "ĠLiber": 4331,
      "Ġsurround": 4332,
      "Ġbecoming": 4333,
      "CC": 4334,
      "Ġcamera": 4335,
      "Ġcontrovers": 4336,
      "Ġaudience": 4337,
      "Ġreject": 4338,
      "Ġargument": 4339,
      "Ġreplace": 4340,
      "Ġserve": 4341,
      "Ġassum": 4342,
      "upp": 4343,
      "Ġtrial": 4344,
      "ius": 4345,
      "Ġjoin": 4346,
      "Ġsun": 4347,
      "32": 4348,
      "lant": 4349,
      "Ġrat": 4350,
      "Ġspl": 4351,
      "ĠQue": 4352,
      "orthern": 4353,
      "ribute": 4354,
      "BA": 4355,
      "Ġonto": 4356,
      "Ġ80": 4357,
      "witch": 4358,
      "Ġepisode": 4359,
      "akistan": 4360,
      "34": 4361,
      "oom": 4362,
      "ĠInc": 4363,
      "Ġpurpose": 4364,
      "Ġappeal": 4365,
      "nel": 4366,
      "Ġ2006": 4367,
      "Ġserved": 4368,
      "ĠBig": 4369,
      "ĠOur": 4370,
      "ĠAtt": 4371,
      "Ġhus": 4372,
      "orrow": 4373,
      "Ġbed": 4374,
      "Ġship": 4375,
      "Ġtheory": 4376,
      "Ġsolid": 4377,
      "atically": 4378,
      "Ġdepartment": 4379,
      "ĠMal": 4380,
      "Ġpartners": 4381,
      "Ġ31": 4382,
      "Ġleadership": 4383,
      "inct": 4384,
      "aks": 4385,
      "Ġdisease": 4386,
      "Ġborn": 4387,
      "Ġresist": 4388,
      "coming": 4389,
      "Ġwealth": 4390,
      "tered": 4391,
      "Ġnine": 4392,
      "semb": 4393,
      "Ġdrugs": 4394,
      "works": 4395,
      "ĠMany": 4396,
      "Ġdrop": 4397,
      "Ġactive": 4398,
      "Ġillegal": 4399,
      "ĠYour": 4400,
      "Ġaccused": 4401,
      "Ġextremely": 4402,
      "Image": 4403,
      "SP": 4404,
      "ingly": 4405,
      "Ġharm": 4406,
      "Ġhttps": 4407,
      "Ġder": 4408,
      "ĠTer": 4409,
      "Ġfloor": 4410,
      "ĠCup": 4411,
      "Ġexplain": 4412,
      "Ġnotice": 4413,
      "acity": 4414,
      "Ġvictims": 4415,
      "umn": 4416,
      "spe": 4417,
      "ĠWestern": 4418,
      "ĠInstitute": 4419,
      "Ġinsurance": 4420,
      "Ġbelief": 4421,
      "ĠJohnson": 4422,
      "zen": 4423,
      "omas": 4424,
      "ortunately": 4425,
      "Ġreturned": 4426,
      "ĠArt": 4427,
      "ĠSl": 4428,
      "Ġsupporters": 4429,
      "asy": 4430,
      "resp": 4431,
      "Ġnotes": 4432,
      "Ġvictory": 4433,
      "ady": 4434,
      "Ġconservative": 4435,
      "Ġdangerous": 4436,
      "Ġhearing": 4437,
      "Ġdriver": 4438,
      "Ġsurface": 4439,
      "36": 4440,
      "37": 4441,
      "Ġamb": 4442,
      "vention": 4443,
      "Ġcash": 4444,
      "eline": 4445,
      "Ġcharged": 4446,
      "38": 4447,
      "Ġdefinitely": 4448,
      "\":": 4449,
      "Ġclosed": 4450,
      "inate": 4451,
      "Ġnorth": 4452,
      "ĠCr": 4453,
      "za": 4454,
      "Ġfresh": 4455,
      "Ġinternet": 4456,
      "bing": 4457,
      "Ġbackground": 4458,
      "Ġnegative": 4459,
      "ait": 4460,
      "ĠTre": 4461,
      "Ġseparate": 4462,
      "ĠMil": 4463,
      "Ġsuggested": 4464,
      "ĠBritain": 4465,
      "Ġmobile": 4466,
      "Ġincred": 4467,
      "well": 4468,
      "Ġcompetition": 4469,
      "Ġneighbor": 4470,
      "Ġmarriage": 4471,
      "55": 4472,
      "Ġmax": 4473,
      "Ġputting": 4474,
      "Ġdocuments": 4475,
      "ĠChris": 4476,
      "Ġprofessional": 4477,
      "Ġcommercial": 4478,
      "iest": 4479,
      "Ġload": 4480,
      "Ġstrength": 4481,
      "Ġcontain": 4482,
      "phone": 4483,
      "Ġexisting": 4484,
      "ĠCarol": 4485,
      "ĠSanders": 4486,
      "Ġdirection": 4487,
      "going": 4488,
      "Ġrepeated": 4489,
      "ĠDel": 4490,
      "Ġfinding": 4491,
      "ĠHall": 4492,
      "EM": 4493,
      "Ġpurs": 4494,
      "Ġviews": 4495,
      "olf": 4496,
      "Ġissued": 4497,
      "Ġwatching": 4498,
      "ĠIslamic": 4499,
      "ossible": 4500,
      "Bl": 4501,
      "ography": 4502,
      "istics": 4503,
      "ribe": 4504,
      "Ġnor": 4505,
      "Ġmap": 4506,
      "actions": 4507,
      "Ġdie": 4508,
      "ĠJewish": 4509,
      "ulf": 4510,
      "Ġinstance": 4511,
      "ctors": 4512,
      "Ġcompar": 4513,
      "Ġ90": 4514,
      "OL": 4515,
      "level": 4516,
      "!âĢĿ": 4517,
      "Ġbomb": 4518,
      "ada": 4519,
      "but": 4520,
      "Ġdecade": 4521,
      "Ġcommunities": 4522,
      "Ġran": 4523,
      "Ġradio": 4524,
      "Ġsites": 4525,
      "ĠOver": 4526,
      "inter": 4527,
      "irgin": 4528,
      "Ġcateg": 4529,
      "Ġconcerned": 4530,
      "ĠAfghan": 4531,
      "NA": 4532,
      "Ġtask": 4533,
      "Ġspoke": 4534,
      "Ġdaughter": 4535,
      "ĠLike": 4536,
      "Ġworst": 4537,
      "Ġcommittee": 4538,
      "Ġsmaller": 4539,
      "ĠGOP": 4540,
      "lands": 4541,
      "Ġtelling": 4542,
      "ĠWindows": 4543,
      "which": 4544,
      "iliar": 4545,
      "Le": 4546,
      "Ġwinning": 4547,
      "ĠSince": 4548,
      "ĠMad": 4549,
      "ario": 4550,
      "ĠIsraeli": 4551,
      "Ġdoubt": 4552,
      "Ġsupported": 4553,
      "Ġolder": 4554,
      "ĠEv": 4555,
      "ĠLos": 4556,
      "ĠCanadian": 4557,
      "Ġtools": 4558,
      "Ġblue": 4559,
      "PS": 4560,
      "Ġcontext": 4561,
      "Ġstated": 4562,
      "Ġded": 4563,
      "ĠTy": 4564,
      "Ġfarm": 4565,
      "Ġcoverage": 4566,
      "Ġgay": 4567,
      "Ġaspect": 4568,
      "ĠFox": 4569,
      "PA": 4570,
      "ference": 4571,
      "hem": 4572,
      "Ġcook": 4573,
      "Ġscale": 4574,
      "Ġguess": 4575,
      "overy": 4576,
      "ulated": 4577,
      "Ġchurch": 4578,
      "ĠJones": 4579,
      "azon": 4580,
      "Ġstructure": 4581,
      "ĠUN": 4582,
      "ĠCommun": 4583,
      "lor": 4584,
      "Ġ2018": 4585,
      "Ġmurder": 4586,
      "Americ": 4587,
      "Ġsan": 4588,
      "Ġtransfer": 4589,
      "ĠJud": 4590,
      "ĠSil": 4591,
      "Ġtruly": 4592,
      "ĠPakistan": 4593,
      "night": 4594,
      "rd": 4595,
      "ĠGame": 4596,
      "Ġitems": 4597,
      "Ġsett": 4598,
      "Ġhack": 4599,
      "ampionship": 4600,
      "Ġgrant": 4601,
      "Ġbusinesses": 4602,
      "ih": 4603,
      "ĠSup": 4604,
      "Ġpresence": 4605,
      "Ġvehicle": 4606,
      "ĠDirect": 4607,
      "Ġfaith": 4608,
      "Ġnovel": 4609,
      "GB": 4610,
      "Ġplaced": 4611,
      "Ġtraffic": 4612,
      "bre": 4613,
      "ĠPri": 4614,
      "ĠRobert": 4615,
      "Ġupdate": 4616,
      "Ġlaunched": 4617,
      "iller": 4618,
      "equ": 4619,
      "Ġge": 4620,
      "kins": 4621,
      "ils": 4622,
      "ĠDistrict": 4623,
      "Ġabuse": 4624,
      "tery": 4625,
      "Ġfalse": 4626,
      "Ġlabor": 4627,
      "Ġskills": 4628,
      "icon": 4629,
      "Ġwel": 4630,
      "izes": 4631,
      "Ġdat": 4632,
      "Ġstrateg": 4633,
      "Ð¾": 4634,
      "Ġconsequ": 4635,
      "Ġdecisions": 4636,
      "how": 4637,
      "Ġassess": 4638,
      "ĠPalestin": 4639,
      "Ġannual": 4640,
      "Ġhomes": 4641,
      "Ġlargely": 4642,
      "ĠBank": 4643,
      "ĠFin": 4644,
      "olly": 4645,
      "rey": 4646,
      "Ġdriving": 4647,
      "twitter": 4648,
      "Ġlength": 4649,
      "Ġ70": 4650,
      "Ġunit": 4651,
      "Ġplays": 4652,
      "Ġinjury": 4653,
      "oyal": 4654,
      "andon": 4655,
      "Ġraise": 4656,
      "ĠAc": 4657,
      "Ġentirely": 4658,
      "Ġrough": 4659,
      "Ġaccur": 4660,
      "osure": 4661,
      "Ġexerc": 4662,
      "mail": 4663,
      "Ġbelieves": 4664,
      "Ġstock": 4665,
      "Ġallowing": 4666,
      "Ġbanks": 4667,
      "ĠAre": 4668,
      "Ġdiscovered": 4669,
      "ocracy": 4670,
      "Ġactivities": 4671,
      "Ġtrend": 4672,
      "Ġrequires": 4673,
      "Ġcaught": 4674,
      "amm": 4675,
      "48": 4676,
      "Ġtransport": 4677,
      "Ġeat": 4678,
      "Ġque": 4679,
      "oman": 4680,
      "Ġspokesman": 4681,
      "ĠCap": 4682,
      "cknow": 4683,
      "andom": 4684,
      "Ġcatch": 4685,
      "ula": 4686,
      "Ġ2005": 4687,
      "Ġtesting": 4688,
      "real": 4689,
      "Ġanimals": 4690,
      "47": 4691,
      "ĠConst": 4692,
      "Ġplease": 4693,
      "anging": 4694,
      "la": 4695,
      "Ġafford": 4696,
      "CH": 4697,
      "Ġcancer": 4698,
      "ĠChurch": 4699,
      "arant": 4700,
      "Ġrestaur": 4701,
      "Ġtells": 4702,
      "ĠUk": 4703,
      "ups": 4704,
      "ication": 4705,
      "Ġfant": 4706,
      "Ġoccup": 4707,
      "Ġmanaged": 4708,
      "kes": 4709,
      "âĢĺ": 4710,
      "cks": 4711,
      "Ġgeneration": 4712,
      "ancy": 4713,
      "Ġamazing": 4714,
      "Ġmeasures": 4715,
      "ighter": 4716,
      "Ġtransl": 4717,
      "Ġcards": 4718,
      "oted": 4719,
      "Ġstopped": 4720,
      "Ġtim": 4721,
      "Ġmentioned": 4722,
      "place": 4723,
      "annel": 4724,
      "ĠLeg": 4725,
      "Ġhasn": 4726,
      "ĠJim": 4727,
      "ĠCollege": 4728,
      "isation": 4729,
      "Ġhusband": 4730,
      "Ġfuel": 4731,
      "Ġbul": 4732,
      "Ġoffensive": 4733,
      "ĠAngeles": 4734,
      "ĠFore": 4735,
      "Ġrefere": 4736,
      "Ġenforcement": 4737,
      "onto": 4738,
      "More": 4739,
      "Ġsequ": 4740,
      "Ġrecommend": 4741,
      "39": 4742,
      "ĠRyan": 4743,
      "uct": 4744,
      "ĠAssociation": 4745,
      "Ġowner": 4746,
      "ĠStep": 4747,
      "ym": 4748,
      "Ġestablish": 4749,
      "49": 4750,
      "what": 4751,
      "season": 4752,
      "ĠKh": 4753,
      "Ġnewsp": 4754,
      "ka": 4755,
      "Ġattend": 4756,
      "Ġtherefore": 4757,
      "ĠPC": 4758,
      "Ġremoved": 4759,
      "Ġearth": 4760,
      "Ġdetect": 4761,
      "ĠInstead": 4762,
      "Ġwitness": 4763,
      "Ġsuit": 4764,
      "ronic": 4765,
      "bour": 4766,
      "Ġcong": 4767,
      "ests": 4768,
      "ĠAfrica": 4769,
      "icy": 4770,
      "ĠGovernment": 4771,
      "Ġiniti": 4772,
      "RA": 4773,
      "Ġjustice": 4774,
      "Ġphil": 4775,
      "Ġholding": 4776,
      "Ġdiscussion": 4777,
      "Ġdeliver": 4778,
      "ĠMer": 4779,
      "Ġdepend": 4780,
      "Ġspirit": 4781,
      "====": 4782,
      "ĠMP": 4783,
      "ava": 4784,
      "Ġuseful": 4785,
      "ucky": 4786,
      "Ġprefer": 4787,
      "NN": 4788,
      "itz": 4789,
      "Ġphotos": 4790,
      "rad": 4791,
      "iter": 4792,
      "Ġkid": 4793,
      "Ġstrike": 4794,
      "Des": 4795,
      "Ġsetting": 4796,
      "Ġmodels": 4797,
      "Ġsurvey": 4798,
      "rick": 4799,
      "Me": 4800,
      "Ġsouth": 4801,
      "ĠWil": 4802,
      "iot": 4803,
      "Ġkeeping": 4804,
      "Ġproviding": 4805,
      "formation": 4806,
      "Ġjoined": 4807,
      "Ġintroduced": 4808,
      "ĠLouis": 4809,
      "Ġseek": 4810,
      "Ġfocused": 4811,
      "ĠVer": 4812,
      "Ġwindow": 4813,
      "Ġconversation": 4814,
      "ĠAndroid": 4815,
      "Ġwaiting": 4816,
      "ht": 4817,
      "Ġfinished": 4818,
      "Ġoperation": 4819,
      "Ġmissing": 4820,
      "Ġrefuge": 4821,
      "agn": 4822,
      "Ġfeels": 4823,
      "ĠAfrican": 4824,
      "Ġestablished": 4825,
      "Ġexclus": 4826,
      "Ġobvious": 4827,
      "Ġcandidates": 4828,
      "Ġpartner": 4829,
      "ĠGree": 4830,
      "Ġplanning": 4831,
      "icide": 4832,
      "ĠSupreme": 4833,
      "Ġsides": 4834,
      "ĠFBI": 4835,
      "Ġacknow": 4836,
      "ĠFrank": 4837,
      "DA": 4838,
      "ĠSub": 4839,
      "Ġsubsc": 4840,
      "outs": 4841,
      "Ġidentified": 4842,
      "http": 4843,
      "ulate": 4844,
      "dden": 4845,
      "owl": 4846,
      "Ġrelatively": 4847,
      "eless": 4848,
      "vant": 4849,
      "Ġguard": 4850,
      "Ġconstruction": 4851,
      "46": 4852,
      "enses": 4853,
      "tained": 4854,
      "Ġtough": 4855,
      "Ġfunds": 4856,
      "Ġcommitted": 4857,
      "Our": 4858,
      "Ġgraph": 4859,
      "ĠTim": 4860,
      "ications": 4861,
      "stream": 4862,
      "azine": 4863,
      "ocal": 4864,
      "Ġcells": 4865,
      "Ġarrived": 4866,
      "ĠMiss": 4867,
      "Ġweak": 4868,
      "Ġpet": 4869,
      "ception": 4870,
      "75": 4871,
      "igan": 4872,
      "adem": 4873,
      "lig": 4874,
      "ibrary": 4875,
      "Ã¡": 4876,
      "Ġfourth": 4877,
      "Ġfigures": 4878,
      "ĠGroup": 4879,
      "Ġdownload": 4880,
      "Ġstick": 4881,
      "anda": 4882,
      "ĠGood": 4883,
      "Ġappropri": 4884,
      "eah": 4885,
      "Ġinterests": 4886,
      "Trump": 4887,
      "ĠYes": 4888,
      "Ġveter": 4889,
      "rees": 4890,
      "ĠPre": 4891,
      "ĠOut": 4892,
      "Ġexchange": 4893,
      "Ġconnection": 4894,
      "Ġimmigration": 4895,
      "Last": 4896,
      "do": 4897,
      "Ġprotection": 4898,
      "Ġotherwise": 4899,
      "Ġconclud": 4900,
      "ĠJes": 4901,
      "Ġsupply": 4902,
      "ĠImages": 4903,
      "Ġhate": 4904,
      "Ġscript": 4905,
      "ĠInter": 4906,
      "!!": 4907,
      "ĠMicrosoft": 4908,
      "Ġslightly": 4909,
      "ĠChar": 4910,
      "ĠJapanese": 4911,
      "hi": 4912,
      "ros": 4913,
      "ĠAlthough": 4914,
      "isf": 4915,
      "Ġsust": 4916,
      "Ġspeaking": 4917,
      "ĠSur": 4918,
      "Ġtalks": 4919,
      "run": 4920,
      "Ġconflict": 4921,
      "oms": 4922,
      "wing": 4923,
      "Ġhair": 4924,
      "Ġgain": 4925,
      "Ġsudden": 4926,
      "Ġremind": 4927,
      "Ġsuggests": 4928,
      "Ġtaxes": 4929,
      "Ġgirls": 4930,
      "Ġsch": 4931,
      "ĠMont": 4932,
      "Ġkilling": 4933,
      "ey": 4934,
      "Ġinsp": 4935,
      "Ġsounds": 4936,
      "Ġtweet": 4937,
      "ĠMartin": 4938,
      "ocol": 4939,
      "Ġsteps": 4940,
      "Ġseconds": 4941,
      "Ġroll": 4942,
      "Ġcollection": 4943,
      "idering": 4944,
      "ĠArmy": 4945,
      "ano": 4946,
      "ĠMexico": 4947,
      "Ġprospect": 4948,
      "fe": 4949,
      "with": 4950,
      "hens": 4951,
      "Ġhousing": 4952,
      "ĠBur": 4953,
      "Ġscientific": 4954,
      "Ġdefensive": 4955,
      "range": 4956,
      "Ġbigger": 4957,
      "UT": 4958,
      "pm": 4959,
      "Ġdecide": 4960,
      "Ġ2000": 4961,
      "ĠProf": 4962,
      "Ġpit": 4963,
      "ĠBern": 4964,
      "Ġsports": 4965,
      "HL": 4966,
      "Ġfle": 4967,
      "Ġflight": 4968,
      "Ġelements": 4969,
      "Ġstarts": 4970,
      "Ġalternative": 4971,
      "rency": 4972,
      "odies": 4973,
      "Ġfiles": 4974,
      "makers": 4975,
      "ĠUkrain": 4976,
      "ĠUs": 4977,
      "Ġdropped": 4978,
      "Ġaward": 4979,
      "Ġmig": 4980,
      "ĠThomas": 4981,
      "Ġimpossible": 4982,
      "hedul": 4983,
      "onym": 4984,
      "ĠResearch": 4985,
      "Ġfiled": 4986,
      "met": 4987,
      "ĠPet": 4988,
      "ĠVirgin": 4989,
      "Ġarmy": 4990,
      "gar": 4991,
      "Ġthanks": 4992,
      "Ġfailure": 4993,
      "Ġidentity": 4994,
      "Ġsoldiers": 4995,
      "Ġenvironmental": 4996,
      "ĠJeff": 4997,
      "Ġplanned": 4998,
      "Ġcarried": 4999,
      "ĠIr": 5000,
      "ruit": 5001,
      "Ġbeer": 5002,
      "Ġvotes": 5003,
      "Ġmulti": 5004,
      "Ġhelping": 5005,
      "aine": 5006,
      "IM": 5007,
      "ĠTime": 5008,
      "ĠTheir": 5009,
      "uate": 5010,
      "Ġwish": 5011,
      "uters": 5012,
      "ĠMet": 5013,
      "Ġstanding": 5014,
      "ola": 5015,
      "Ġtrip": 5016,
      "Ġmere": 5017,
      "Ġstruct": 5018,
      "uke": 5019,
      "Ġappoint": 5020,
      "ĠSal": 5021,
      "Ġexpensive": 5022,
      "Ġmental": 5023,
      "olit": 5024,
      "Ġdeveloping": 5025,
      "verse": 5026,
      "itutional": 5027,
      "ĠJose": 5028,
      "och": 5029,
      "Pl": 5030,
      "Ġcuts": 5031,
      "ias": 5032,
      "Ġclim": 5033,
      "iser": 5034,
      "ĠJoe": 5035,
      "Go": 5036,
      "Ġpossibly": 5037,
      "coh": 5038,
      "Ġclick": 5039,
      "Ġtast": 5040,
      "Ġcrew": 5041,
      "Ġcommission": 5042,
      "arsh": 5043,
      "Ġfamiliar": 5044,
      "prof": 5045,
      "ĠRichard": 5046,
      "ĠAtlant": 5047,
      "rastructure": 5048,
      "ĠCEO": 5049,
      "ĠLat": 5050,
      "Ġdegree": 5051,
      "ania": 5052,
      "Ġvariety": 5053,
      "Ġpair": 5054,
      "ĠPeter": 5055,
      "Ġ45": 5056,
      "Ġbeautiful": 5057,
      "ancing": 5058,
      "ĠRock": 5059,
      "ĠService": 5060,
      "Ġhonest": 5061,
      "isted": 5062,
      "Ġcircum": 5063,
      "Ġprofessor": 5064,
      "Ġcloser": 5065,
      "agues": 5066,
      "ynam": 5067,
      "erous": 5068,
      "Ġnone": 5069,
      "aded": 5070,
      "Ġturns": 5071,
      "OW": 5072,
      "Ġfellow": 5073,
      "Ġunivers": 5074,
      "look": 5075,
      "arks": 5076,
      "apers": 5077,
      "ĠAlso": 5078,
      "ipping": 5079,
      "Ġmarkets": 5080,
      "ĠFoundation": 5081,
      "].": 5082,
      "Ġspect": 5083,
      "Ġcorner": 5084,
      "Ġhappening": 5085,
      "Ġbalance": 5086,
      "Ġabsolutely": 5087,
      "ĠDec": 5088,
      "Ġapply": 5089,
      "Why": 5090,
      "Ġoperating": 5091,
      "ayer": 5092,
      "Ġstandards": 5093,
      "Ġdomestic": 5094,
      "gers": 5095,
      "Ġheat": 5096,
      "ĠJon": 5097,
      "!\"": 5098,
      "Ġserver": 5099,
      "Ġton": 5100,
      "ĠFire": 5101,
      "Ġgender": 5102,
      "Ġexpress": 5103,
      "Ġhealthy": 5104,
      "icted": 5105,
      "Ġimagine": 5106,
      "ĠTHE": 5107,
      "ga": 5108,
      "Ġplanet": 5109,
      "Ġappre": 5110,
      "Ġexpert": 5111,
      "From": 5112,
      "ĠPrime": 5113,
      "Ġanimal": 5114,
      "kin": 5115,
      "Ġdeleg": 5116,
      "ĠMel": 5117,
      "Ġprinc": 5118,
      "awn": 5119,
      "Ġworry": 5120,
      "Ġinnov": 5121,
      "Ġpossibility": 5122,
      "ĠSyrian": 5123,
      "aven": 5124,
      "Ġincreasingly": 5125,
      "Photo": 5126,
      "Ġultimately": 5127,
      "Ab": 5128,
      "Ġtwice": 5129,
      "ĠToronto": 5130,
      "Ġtests": 5131,
      "atures": 5132,
      "imal": 5133,
      "Ġterrit": 5134,
      "Ġchanging": 5135,
      "ipment": 5136,
      "ĠTwo": 5137,
      "0000": 5138,
      "Ġunits": 5139,
      "Ġapparently": 5140,
      "Ġsea": 5141,
      "Ġexperts": 5142,
      "Ġpaying": 5143,
      "Ġorganizations": 5144,
      "ĠMur": 5145,
      "Ġcarbon": 5146,
      "()": 5147,
      "oston": 5148,
      "yr": 5149,
      "ĠNor": 5150,
      "ĠSecretary": 5151,
      "ĠCru": 5152,
      "ĠDen": 5153,
      "gypt": 5154,
      "31": 5155,
      "Ġagencies": 5156,
      "LE": 5157,
      "illa": 5158,
      "Ġ32": 5159,
      "gn": 5160,
      "ĠST": 5161,
      "Ġschedul": 5162,
      "vis": 5163,
      "Ġlived": 5164,
      "ployment": 5165,
      "ashed": 5166,
      "Ġregist": 5167,
      "ION": 5168,
      "ĠBitcoin": 5169,
      "Ġvul": 5170,
      "ĠMary": 5171,
      "ĠTeam": 5172,
      "Ġpieces": 5173,
      "IV": 5174,
      "ores": 5175,
      "Ġapplications": 5176,
      "ĠMos": 5177,
      "Ġ2004": 5178,
      "Ġsitting": 5179,
      "Ġaccounts": 5180,
      "orage": 5181,
      "oving": 5182,
      "Ġrevolution": 5183,
      "ĠPac": 5184,
      "mas": 5185,
      "edia": 5186,
      "Ġskin": 5187,
      "Ġphilos": 5188,
      "IP": 5189,
      "ĠWeb": 5190,
      "alls": 5191,
      "Ġrich": 5192,
      "Ġvast": 5193,
      "Ġlosing": 5194,
      "acks": 5195,
      "ĠCarolina": 5196,
      "Read": 5197,
      "Ġpil": 5198,
      "Ġsurprise": 5199,
      "cean": 5200,
      "Ġflow": 5201,
      "65": 5202,
      "Ġcold": 5203,
      "ĠAmazon": 5204,
      "Ġseeking": 5205,
      "ml": 5206,
      "ENT": 5207,
      "Ġath": 5208,
      "den": 5209,
      "Ġarms": 5210,
      "anned": 5211,
      "Ġcolle": 5212,
      "cious": 5213,
      "adium": 5214,
      "Ġwriter": 5215,
      "Ġadjust": 5216,
      "Ġprepared": 5217,
      "cel": 5218,
      "Ġunless": 5219,
      "razil": 5220,
      "ĠFrancisco": 5221,
      "Ġuniversity": 5222,
      "ĠSocial": 5223,
      "stein": 5224,
      "Phone": 5225,
      "uster": 5226,
      "obby": 5227,
      "Ġcorporate": 5228,
      "Ġfamous": 5229,
      "Ġdin": 5230,
      "arp": 5231,
      "01": 5232,
      "Ġdevelopers": 5233,
      "Ġnar": 5234,
      "ĠLast": 5235,
      "roud": 5236,
      "Ġinternal": 5237,
      "Ġneighborhood": 5238,
      "osen": 5239,
      "Ġhelps": 5240,
      "Ġsolar": 5241,
      "Ġsector": 5242,
      "Ġconsult": 5243,
      "ansion": 5244,
      "Do": 5245,
      "Ġtack": 5246,
      "Ġmut": 5247,
      "ologies": 5248,
      "Ġcapacity": 5249,
      "Ġstreets": 5250,
      "ĠCentral": 5251,
      "Ġforms": 5252,
      "Ġrid": 5253,
      "Ġinstit": 5254,
      "Ġresponsibility": 5255,
      "Ġrapid": 5256,
      "Ġunion": 5257,
      "Ġcouncil": 5258,
      "Ġoccurred": 5259,
      "Even": 5260,
      "Ġapart": 5261,
      "Ġguarant": 5262,
      "ĠAri": 5263,
      "ĠUSA": 5264,
      "Ġfif": 5265,
      "Ġremained": 5266,
      "Ġestimated": 5267,
      "Of": 5268,
      "Ġlocated": 5269,
      "Ġfol": 5270,
      "Ġvision": 5271,
      "Ġattorney": 5272,
      "Ġpotentially": 5273,
      "Let": 5274,
      "ini": 5275,
      "uzz": 5276,
      "ĠMiddle": 5277,
      "Ġdetermine": 5278,
      "ĠAustralian": 5279,
      "Ġtroops": 5280,
      "Ġteen": 5281,
      "ocking": 5282,
      "ĠPhoto": 5283,
      "Ġmaster": 5284,
      "Ġinfrastructure": 5285,
      "Ġbroken": 5286,
      "Ġperspect": 5287,
      "porary": 5288,
      "under": 5289,
      "ĠThose": 5290,
      "Ġreligion": 5291,
      "Ġregarding": 5292,
      "ĠAny": 5293,
      "road": 5294,
      "Ġpresented": 5295,
      "Ġelections": 5296,
      "Ġfactors": 5297,
      "ĠPublic": 5298,
      "Ġcovered": 5299,
      "Ġelim": 5300,
      "enced": 5301,
      "ĠAN": 5302,
      "ours": 5303,
      "Ġsymb": 5304,
      "Ġsport": 5305,
      "Ġsigns": 5306,
      "Ġbreat": 5307,
      "state": 5308,
      "Ġconvention": 5309,
      "Ġfired": 5310,
      "Ġgovernments": 5311,
      "May": 5312,
      "rible": 5313,
      "Ġtight": 5314,
      "Ġintended": 5315,
      "ĠOnce": 5316,
      "Ġspecifically": 5317,
      "ader": 5318,
      "Ġboost": 5319,
      "esterday": 5320,
      "Ġheav": 5321,
      "ĠChief": 5322,
      "Ġclin": 5323,
      "Ġprosecut": 5324,
      "Ġmethods": 5325,
      "aren": 5326,
      "idden": 5327,
      "Ġhyp": 5328,
      "auc": 5329,
      "Ġhumans": 5330,
      "Ġequipment": 5331,
      "Ġpercentage": 5332,
      "Ġequal": 5333,
      "Ġsettle": 5334,
      "Ġminimum": 5335,
      "Ġshape": 5336,
      "Ġremaining": 5337,
      "phas": 5338,
      "ĠRem": 5339,
      "related": 5340,
      "Ġodd": 5341,
      "ĠUnder": 5342,
      "Up": 5343,
      "Ġenemy": 5344,
      "LA": 5345,
      "Ġfaster": 5346,
      "Ġrefused": 5347,
      "Ġrent": 5348,
      "Ġauthority": 5349,
      "Just": 5350,
      "Ġclot": 5351,
      "ĠCur": 5352,
      "lymp": 5353,
      "ĠWilliams": 5354,
      "Ġwood": 5355,
      "Ġera": 5356,
      "anche": 5357,
      "that": 5358,
      "lets": 5359,
      "Ġreduced": 5360,
      "lyn": 5361,
      "Ġelected": 5362,
      "Ġvehicles": 5363,
      "anwhile": 5364,
      "ĠGuard": 5365,
      "Ġtun": 5366,
      "anish": 5367,
      "Ġsecure": 5368,
      "Ġhandle": 5369,
      "ĠColor": 5370,
      "isher": 5371,
      "Ġdifferences": 5372,
      "Ġhun": 5373,
      "Ġpositions": 5374,
      "ĠCamp": 5375,
      "ĠLee": 5376,
      "inating": 5377,
      "Ġruling": 5378,
      "gl": 5379,
      "ĠMass": 5380,
      "ĠJournal": 5381,
      "ĠWho": 5382,
      "noon": 5383,
      "Ġprove": 5384,
      "Ġsale": 5385,
      ",'": 5386,
      "Ġplenty": 5387,
      "DP": 5388,
      "Ġstret": 5389,
      "Ġconcent": 5390,
      "eder": 5391,
      "Ġbringing": 5392,
      "Every": 5393,
      "Ġ//": 5394,
      "oty": 5395,
      "Ġswitch": 5396,
      "Ġselling": 5397,
      "Ġseasons": 5398,
      "Ġvoted": 5399,
      "person": 5400,
      "nell": 5401,
      "ĠProject": 5402,
      "Ġconducted": 5403,
      "olved": 5404,
      "ĠBook": 5405,
      "rie": 5406,
      "cohol": 5407,
      "ĠDuring": 5408,
      "Ġpoliticians": 5409,
      "Ġchallenges": 5410,
      "itect": 5411,
      "Ġfinish": 5412,
      "uration": 5413,
      "Ġcas": 5414,
      "Ġcontrast": 5415,
      "ighters": 5416,
      "Ġoffering": 5417,
      "hand": 5418,
      "De": 5419,
      "Ġdetermined": 5420,
      "aling": 5421,
      "uts": 5422,
      "Ġconclus": 5423,
      "ĠProg": 5424,
      "Ĥ¬": 5425,
      "ĠEgypt": 5426,
      "Ġerror": 5427,
      "iler": 5428,
      "Ġmaintain": 5429,
      "Ġstars": 5430,
      "Ġreact": 5431,
      "ĠGal": 5432,
      "Ġsubs": 5433,
      "Ġgreatest": 5434,
      "ashion": 5435,
      "Ġconsidering": 5436,
      "Ġvulner": 5437,
      "TH": 5438,
      "59": 5439,
      "Ġweren": 5440,
      "ĠBoston": 5441,
      "Ġplants": 5442,
      "Ġchemical": 5443,
      "IG": 5444,
      "icial": 5445,
      "Ġhurt": 5446,
      "ĠSing": 5447,
      "His": 5448,
      "ĠWal": 5449,
      "Ġaircraft": 5450,
      "Ðµ": 5451,
      "Ġgar": 5452,
      "Ġadapt": 5453,
      "Ġshall": 5454,
      "Ġcollabor": 5455,
      "Ġbought": 5456,
      "Ġaffected": 5457,
      "Se": 5458,
      "Ġexpressed": 5459,
      "onom": 5460,
      "ĠCharl": 5461,
      "ĠShow": 5462,
      "Ġretail": 5463,
      "yth": 5464,
      "Ġpointed": 5465,
      "Ġaid": 5466,
      "Ġbrow": 5467,
      "Ġ500": 5468,
      "Ġexperienced": 5469,
      "Ġzone": 5470,
      "OC": 5471,
      "ĠNAS": 5472,
      "lo": 5473,
      "war": 5474,
      "ĠJo": 5475,
      "Ind": 5476,
      "Ġsupporting": 5477,
      "Ġgrab": 5478,
      "ownt": 5479,
      "Ġcombined": 5480,
      "ĠSant": 5481,
      "Ġjail": 5482,
      "ĠFederal": 5483,
      "ĠMedic": 5484,
      "Ġpulled": 5485,
      "Ġturning": 5486,
      "ĠRub": 5487,
      "Ġleads": 5488,
      "Ġdim": 5489,
      "ĠBrazil": 5490,
      "ĠVirginia": 5491,
      "Ġbroke": 5492,
      "Ġmort": 5493,
      "Ġstress": 5494,
      "Ġmotiv": 5495,
      "64": 5496,
      "Ð°": 5497,
      "sen": 5498,
      "Ġbasically": 5499,
      "ĠPlease": 5500,
      "Ġast": 5501,
      "Ġindeed": 5502,
      "Ġplus": 5503,
      "Ġrecorded": 5504,
      "Ġfacing": 5505,
      "rawn": 5506,
      "Ġlots": 5507,
      "Ġacadem": 5508,
      "First": 5509,
      "Ġremove": 5510,
      "useum": 5511,
      "Ġelement": 5512,
      "Ġinvolve": 5513,
      "Ġprime": 5514,
      "ĠJackson": 5515,
      "Ġspring": 5516,
      "reens": 5517,
      "Ġrevenue": 5518,
      "Ġbound": 5519,
      "Ġidentify": 5520,
      "Ġyards": 5521,
      "Ġcalcul": 5522,
      "etic": 5523,
      "ĠOlymp": 5524,
      "Ġgrew": 5525,
      "Ġbelong": 5526,
      "olt": 5527,
      "Ġyouth": 5528,
      "Ġtrig": 5529,
      "Ġafternoon": 5530,
      "Ġproposal": 5531,
      "05": 5532,
      "Pe": 5533,
      "ĠMa": 5534,
      "ãĤ": 5535,
      "Ġaccident": 5536,
      "Ġherself": 5537,
      "ĠProt": 5538,
      "Ġvisual": 5539,
      "Ġappreci": 5540,
      "Ġvir": 5541,
      "ternal": 5542,
      "Ġoriginally": 5543,
      "ĠBoth": 5544,
      "ĠLabour": 5545,
      "Ġtact": 5546,
      "Ġsignificantly": 5547,
      "ĠParis": 5548,
      "Ġrandom": 5549,
      "Ġsurprising": 5550,
      "Ġpurchase": 5551,
      "ĠMedia": 5552,
      "Ġobviously": 5553,
      "Ġevening": 5554,
      "Ġflat": 5555,
      "Ġexplos": 5556,
      "host": 5557,
      "life": 5558,
      "Ġtur": 5559,
      "ompl": 5560,
      "Ġmatters": 5561,
      "Ġthr": 5562,
      "odd": 5563,
      "plom": 5564,
      "Ġappearance": 5565,
      "ĠMatt": 5566,
      "Ġdatab": 5567,
      "Since": 5568,
      "Well": 5569,
      "Ġstorm": 5570,
      "Ġflag": 5571,
      "Another": 5572,
      "unction": 5573,
      "raud": 5574,
      "Ġargued": 5575,
      "Ġ\\": 5576,
      "Ġhopes": 5577,
      "care": 5578,
      "Ġvoting": 5579,
      "Ġadvance": 5580,
      "ĠiPhone": 5581,
      "Ġshift": 5582,
      "Ġtypically": 5583,
      "Ġemergency": 5584,
      "</": 5585,
      "Ġminute": 5586,
      "Ġdismiss": 5587,
      "Ġsets": 5588,
      "rier": 5589,
      "Ġlisten": 5590,
      "ĠIsland": 5591,
      "ller": 5592,
      "essions": 5593,
      "Ġregime": 5594,
      "uy": 5595,
      "Ġbaby": 5596,
      "ĠSol": 5597,
      "osite": 5598,
      "gment": 5599,
      "ĠAfghanistan": 5600,
      "vey": 5601,
      "Ġthank": 5602,
      "TA": 5603,
      "ĠOpen": 5604,
      "Ġdiss": 5605,
      "Ġfactor": 5606,
      "Ġpassing": 5607,
      "ĠSpr": 5608,
      "ĠPower": 5609,
      "Ġcultural": 5610,
      "oral": 5611,
      "App": 5612,
      "cons": 5613,
      "ĠPut": 5614,
      "Ġcoord": 5615,
      "ruption": 5616,
      "ĠIN": 5617,
      "Ġweapon": 5618,
      "ortion": 5619,
      "Ġends": 5620,
      "standing": 5621,
      "razy": 5622,
      "Ġfilms": 5623,
      "Ġproceed": 5624,
      "Ġid": 5625,
      "Ġwearing": 5626,
      "Ġproced": 5627,
      "anged": 5628,
      "Ġmode": 5629,
      "Ġcombat": 5630,
      "Ġinjured": 5631,
      "Ġfly": 5632,
      "Ġmarg": 5633,
      "Ġtreated": 5634,
      "Ġsuppl": 5635,
      "Ġexperiment": 5636,
      "Ġpanel": 5637,
      "itable": 5638,
      "Ġ2003": 5639,
      "Sp": 5640,
      "pass": 5641,
      "Ġopportunities": 5642,
      "adow": 5643,
      "ounded": 5644,
      "Ġbroadcast": 5645,
      "TV": 5646,
      "ĠFe": 5647,
      "ĠDaily": 5648,
      "erry": 5649,
      "ĠBet": 5650,
      "mosp": 5651,
      "ulture": 5652,
      "Ġstands": 5653,
      "Ġseriously": 5654,
      "Ġreaction": 5655,
      "ĠSteve": 5656,
      "Ġtree": 5657,
      "eds": 5658,
      "ivered": 5659,
      "ĠFree": 5660,
      "ĠSpace": 5661,
      "Ġ1990": 5662,
      "endment": 5663,
      "Ġguns": 5664,
      "respond": 5665,
      "Ġment": 5666,
      "Ġconsumers": 5667,
      "Ġexcited": 5668,
      "ĠRiver": 5669,
      "class": 5670,
      "ĠScot": 5671,
      "Ġprivacy": 5672,
      "mond": 5673,
      "apter": 5674,
      "Ġfrust": 5675,
      "obe": 5676,
      "hered": 5677,
      "ĠCath": 5678,
      "Ġadvert": 5679,
      "Ġoptim": 5680,
      "Ġtrouble": 5681,
      "TC": 5682,
      "col": 5683,
      "ĠPenn": 5684,
      "Ġyes": 5685,
      "Ġquiet": 5686,
      "Ġconstruct": 5687,
      "ributed": 5688,
      "Ġdeclined": 5689,
      "ensions": 5690,
      "PD": 5691,
      "42": 5692,
      "ogue": 5693,
      "Ġeval": 5694,
      "Ġreporters": 5695,
      "Ġmal": 5696,
      "abin": 5697,
      "Ġpatient": 5698,
      "Ġagent": 5699,
      "Ġwrites": 5700,
      "ato": 5701,
      "ampion": 5702,
      "Ġwidely": 5703,
      "Cont": 5704,
      "Ġgra": 5705,
      "ucks": 5706,
      "ĠSaud": 5707,
      "Ġcraft": 5708,
      "aints": 5709,
      "Ġstruggle": 5710,
      "Ġbodies": 5711,
      "Ġopposed": 5712,
      "43": 5713,
      "bur": 5714,
      "Ġreference": 5715,
      "ĠConserv": 5716,
      "ĠSystem": 5717,
      "Ġtalent": 5718,
      "Ġpowers": 5719,
      "aled": 5720,
      "II": 5721,
      "Ġattempts": 5722,
      "57": 5723,
      "idel": 5724,
      "Ġtalked": 5725,
      "gen": 5726,
      "Ġpitch": 5727,
      "enda": 5728,
      "Ġcolumn": 5729,
      "MA": 5730,
      "Ġemails": 5731,
      "Ġinstitutions": 5732,
      "Ġquant": 5733,
      "Ġsplit": 5734,
      "Am": 5735,
      "edd": 5736,
      "Ġemp": 5737,
      "issions": 5738,
      "Ġseat": 5739,
      "****": 5740,
      "Ġunable": 5741,
      "Ġdiscl": 5742,
      "ĠAC": 5743,
      "Ġ2001": 5744,
      "asp": 5745,
      "Ġinstruct": 5746,
      "ita": 5747,
      "Ġforg": 5748,
      "Ġdistance": 5749,
      "Ġconfidence": 5750,
      "Ġburn": 5751,
      "ket": 5752,
      "Ġweather": 5753,
      "xual": 5754,
      "ĠRo": 5755,
      "Ġpackage": 5756,
      "ĠToday": 5757,
      "ĠBBC": 5758,
      "ĠHuman": 5759,
      "Ġfaces": 5760,
      "Ġpicked": 5761,
      "Ġsevere": 5762,
      "Ġfindings": 5763,
      "Ġdebut": 5764,
      "ker": 5765,
      "Ġdefault": 5766,
      "56": 5767,
      "ĠWood": 5768,
      "estival": 5769,
      "Ġrot": 5770,
      "Ġobserv": 5771,
      "Ġbull": 5772,
      "ĠTurkey": 5773,
      "pet": 5774,
      "sts": 5775,
      "Ġ36": 5776,
      "elly": 5777,
      "Ġalt": 5778,
      "Ġcompleted": 5779,
      "Ġsem": 5780,
      "Ġcrack": 5781,
      "ĠLife": 5782,
      "Ġordered": 5783,
      "Ġdisappoint": 5784,
      "Ġsubstant": 5785,
      "unte": 5786,
      "oken": 5787,
      "ĠRad": 5788,
      "ĠNov": 5789,
      "Ġglass": 5790,
      "Ġcrimes": 5791,
      "Ġpool": 5792,
      "Ġdepart": 5793,
      "Ġresponded": 5794,
      "word": 5795,
      "cos": 5796,
      "SS": 5797,
      "Ð¸": 5798,
      "Ġsac": 5799,
      "Ġclient": 5800,
      "Ġongoing": 5801,
      "Ġpictures": 5802,
      "Ġliberal": 5803,
      "Ġperspective": 5804,
      "ĠOhio": 5805,
      "ĠYet": 5806,
      "Ġsatisf": 5807,
      "ĠRel": 5808,
      "ĠTra": 5809,
      "ilty": 5810,
      "Ġproud": 5811,
      "Ġaccompl": 5812,
      "ĠSee": 5813,
      "PR": 5814,
      "ĠSher": 5815,
      ",[": 5816,
      "Ġreportedly": 5817,
      "ĠRon": 5818,
      "Ġtechnical": 5819,
      "Ġallegations": 5820,
      "ĠAndrew": 5821,
      "Ġemphas": 5822,
      "writ": 5823,
      "dule": 5824,
      "Ġexperiences": 5825,
      "oking": 5826,
      "ĠFollow": 5827,
      "Ġadvice": 5828,
      "Ġleaves": 5829,
      "Ġing": 5830,
      "sembly": 5831,
      "top": 5832,
      "Ġvalid": 5833,
      "Ġcapable": 5834,
      "isters": 5835,
      "Ġcann": 5836,
      "Ġcopyright": 5837,
      "Ġourselves": 5838,
      "evin": 5839,
      "Ġreporting": 5840,
      "Ġprompt": 5841,
      "Ġnumerous": 5842,
      "apping": 5843,
      "ulations": 5844,
      "Ġexplains": 5845,
      "ĠJesus": 5846,
      "ĠSqu": 5847,
      "ache": 5848,
      "ooth": 5849,
      "Ġcreation": 5850,
      "Ġdelivered": 5851,
      "Ġtourn": 5852,
      "oves": 5853,
      "Other": 5854,
      "ĠMount": 5855,
      "Ġnewspaper": 5856,
      "Ġdenied": 5857,
      "free": 5858,
      "Ġsam": 5859,
      "Ġcoast": 5860,
      "Ġwalking": 5861,
      "Ġcart": 5862,
      "Ġapps": 5863,
      "Ġvan": 5864,
      "Ġvideos": 5865,
      "ĠIll": 5866,
      "Ġapproved": 5867,
      "Ġupgr": 5868,
      "lines": 5869,
      "Ġentertain": 5870,
      "aza": 5871,
      "Ġdiscrim": 5872,
      "Ġrow": 5873,
      "esters": 5874,
      "ĠScience": 5875,
      "Ġflo": 5876,
      "ĠDirector": 5877,
      "Ġloved": 5878,
      "ĠCub": 5879,
      "Ġforget": 5880,
      "Ġviolent": 5881,
      "Ġmand": 5882,
      "ĠForce": 5883,
      "ĠOl": 5884,
      "Ġconfident": 5885,
      "78": 5886,
      "angers": 5887,
      "ĠGrand": 5888,
      "Ġbond": 5889,
      "Ġadmitted": 5890,
      "zer": 5891,
      "ĠâĢ¢": 5892,
      "Ġvari": 5893,
      "Ġgather": 5894,
      "Ġtransform": 5895,
      "Ġconnected": 5896,
      "Ġlawyer": 5897,
      "ishes": 5898,
      "esh": 5899,
      "Ġexplo": 5900,
      "Ġ33": 5901,
      "ocratic": 5902,
      "Ġobjects": 5903,
      "Ġbuildings": 5904,
      "Ġargue": 5905,
      "Ġpages": 5906,
      "Ġauth": 5907,
      "nergy": 5908,
      "Ġsuffered": 5909,
      "alty": 5910,
      "Ġedge": 5911,
      "date": 5912,
      "Ġthoughts": 5913,
      "abilities": 5914,
      "ĠMem": 5915,
      "Ġdelay": 5916,
      "Ġdeclared": 5917,
      "Ġdiplom": 5918,
      "Rep": 5919,
      "Ġcircumst": 5920,
      "Oh": 5921,
      "],": 5922,
      "Ġgiant": 5923,
      "Ġshouldn": 5924,
      "LS": 5925,
      "ĠJul": 5926,
      "Ġcaption": 5927,
      "Ġtransition": 5928,
      "ĠImage": 5929,
      "resents": 5930,
      "illy": 5931,
      "Ġperman": 5932,
      "Ġdrivers": 5933,
      "Ġfilled": 5934,
      "Ġrenew": 5935,
      "uous": 5936,
      "aped": 5937,
      "ouston": 5938,
      "Ġhol": 5939,
      "rum": 5940,
      "ilit": 5941,
      "Ġwithd": 5942,
      "ĠRoad": 5943,
      "Ġtradition": 5944,
      "Ġmissed": 5945,
      "',": 5946,
      "li": 5947,
      "Ġapprox": 5948,
      "Ġmovies": 5949,
      "uations": 5950,
      "ĠSky": 5951,
      "Ġride": 5952,
      "Ġarmed": 5953,
      "ĠJews": 5954,
      "Ġappropriate": 5955,
      "Ġrising": 5956,
      "Ġprin": 5957,
      "Ġsad": 5958,
      "Ġtele": 5959,
      "called": 5960,
      "ĠSeattle": 5961,
      "Ġrealize": 5962,
      "Ġincreases": 5963,
      "Ġnecessarily": 5964,
      "During": 5965,
      "66": 5966,
      "fficient": 5967,
      "ĠKenn": 5968,
      "Ġeffectively": 5969,
      "ĠSov": 5970,
      "Ġrain": 5971,
      "Ġcoff": 5972,
      "Ġnearby": 5973,
      "Ġexcell": 5974,
      "Ġexplan": 5975,
      "ĠAv": 5976,
      "Ġroute": 5977,
      "Ġdial": 5978,
      "Ġwear": 5979,
      "Ġfacts": 5980,
      "hab": 5981,
      "ÑĤ": 5982,
      "game": 5983,
      "ĠRead": 5984,
      "anes": 5985,
      "erg": 5986,
      "Ġthinks": 5987,
      "Ġwarm": 5988,
      "burg": 5989,
      "Ġmarried": 5990,
      "Ġstorage": 5991,
      "ĠHaw": 5992,
      "asure": 5993,
      "Ġlock": 5994,
      "Ġimproved": 5995,
      "Ġexamples": 5996,
      "OD": 5997,
      "abled": 5998,
      "ansas": 5999,
      "Ġadvanced": 6000,
      "Ġmessages": 6001,
      "aniel": 6002,
      "ĠBoard": 6003,
      "Ġpublicly": 6004,
      "Ġfort": 6005,
      ",âĢĻ": 6006,
      "rating": 6007,
      "ĠSum": 6008,
      "Ġlegit": 6009,
      "Ġhell": 6010,
      "Ġempt": 6011,
      "Many": 6012,
      "arters": 6013,
      "Ġconfirm": 6014,
      "Ġwaste": 6015,
      "Ġinjuries": 6016,
      "amin": 6017,
      "Ġcooper": 6018,
      "TS": 6019,
      "ette": 6020,
      "Ġwarned": 6021,
      "Ġpure": 6022,
      "Ġstatements": 6023,
      "95": 6024,
      "Ġlabel": 6025,
      "Ġstood": 6026,
      "Ġking": 6027,
      "Over": 6028,
      "Ġdynam": 6029,
      "law": 6030,
      "Ġeditor": 6031,
      "Follow": 6032,
      "Ġtow": 6033,
      "oma": 6034,
      "Ġatmosp": 6035,
      "Ġtech": 6036,
      "Ġresident": 6037,
      "Although": 6038,
      "Ġ1980": 6039,
      "Ġyell": 6040,
      "ĠWhe": 6041,
      "vin": 6042,
      "Ġalcohol": 6043,
      "Ġcontains": 6044,
      "ĠSign": 6045,
      "Ġinitially": 6046,
      "ideo": 6047,
      "Ġguilty": 6048,
      "Ġlinked": 6049,
      "inent": 6050,
      "ĠWork": 6051,
      "Ġaccepted": 6052,
      "usiness": 6053,
      "Ġcloud": 6054,
      "Ġeverybody": 6055,
      "Ġessentially": 6056,
      "enture": 6057,
      "Ġradical": 6058,
      "amental": 6059,
      "Ġrail": 6060,
      "Res": 6061,
      "Ġreaders": 6062,
      "Ġshop": 6063,
      "Ġmoral": 6064,
      "Ġterrorist": 6065,
      "Ġenh": 6066,
      "Ġsentence": 6067,
      "Ġmaterials": 6068,
      "Ġartist": 6069,
      "Add": 6070,
      "ĠID": 6071,
      "essor": 6072,
      "Ġsecretary": 6073,
      "ĠRod": 6074,
      "Ġcentre": 6075,
      "ERS": 6076,
      "Ġbare": 6077,
      "irds": 6078,
      "Ġactivists": 6079,
      "Ġhistorical": 6080,
      "Ġquarterback": 6081,
      "long": 6082,
      "Ġlaugh": 6083,
      "ĠWeek": 6084,
      "xy": 6085,
      "Ġyesterday": 6086,
      "irty": 6087,
      "Ġdoctor": 6088,
      "ĠLin": 6089,
      "Ġsubsequ": 6090,
      "Ġmyster": 6091,
      "Ġtemperature": 6092,
      "Ġreceiving": 6093,
      "Ġlinks": 6094,
      "Ġoffense": 6095,
      "you": 6096,
      "astern": 6097,
      "kel": 6098,
      "ĠMichigan": 6099,
      "Ã³": 6100,
      "ĠVict": 6101,
      "Tube": 6102,
      "Ġneither": 6103,
      "Ġmine": 6104,
      "Most": 6105,
      "can": 6106,
      "ĠCruz": 6107,
      "Ġcauses": 6108,
      "Ġmanufacture": 6109,
      "Ġ2002": 6110,
      "Ġhousehold": 6111,
      "water": 6112,
      "Ġperformed": 6113,
      "abb": 6114,
      "icing": 6115,
      "Ġexercise": 6116,
      "PU": 6117,
      "Per": 6118,
      "Ġmoves": 6119,
      "ĠChristmas": 6120,
      "usal": 6121,
      "ourney": 6122,
      "Ġdesire": 6123,
      "American": 6124,
      "ĠRomney": 6125,
      "active": 6126,
      "Ġphilosoph": 6127,
      "iques": 6128,
      "Ġapplied": 6129,
      "En": 6130,
      "Ġsuc": 6131,
      "Ġsick": 6132,
      "agers": 6133,
      "duc": 6134,
      "ĠOk": 6135,
      "41": 6136,
      "Ġfranch": 6137,
      "Ġplane": 6138,
      "orry": 6139,
      "See": 6140,
      "itors": 6141,
      "Ġpra": 6142,
      "Ġplayoff": 6143,
      "ician": 6144,
      "Ġscheduled": 6145,
      "Ġske": 6146,
      "Ġbegins": 6147,
      "orse": 6148,
      "ĠAff": 6149,
      "Ġremark": 6150,
      "Ġcorrespond": 6151,
      "Ġtotally": 6152,
      "etroit": 6153,
      "Ġrein": 6154,
      "Ġlisted": 6155,
      "uls": 6156,
      "58": 6157,
      "name": 6158,
      "Ġshots": 6159,
      "ogan": 6160,
      "Ġfollows": 6161,
      "Ġdemocracy": 6162,
      "inals": 6163,
      "Ġegg": 6164,
      "Ġ37": 6165,
      "Ġgovernor": 6166,
      "Ġwarning": 6167,
      "Ġupdates": 6168,
      "rid": 6169,
      "ĠHy": 6170,
      "Ġscored": 6171,
      "Ġunlikely": 6172,
      "Then": 6173,
      "esome": 6174,
      "Ġring": 6175,
      "Ġsav": 6176,
      "Ġconsequences": 6177,
      "awa": 6178,
      "Ġvacc": 6179,
      "ĠGM": 6180,
      "Ġcriticism": 6181,
      "Ġcro": 6182,
      "Ġexpansion": 6183,
      "Ġfaced": 6184,
      "Ġcombination": 6185,
      "Ġmagazine": 6186,
      "Ġbike": 6187,
      "Ġrally": 6188,
      "Ġjoint": 6189,
      "ĠDevelop": 6190,
      "Ġanywhere": 6191,
      "Ġpushed": 6192,
      "Ġannouncement": 6193,
      "enger": 6194,
      "Ġschol": 6195,
      "ĠSwed": 6196,
      "ĠMuslims": 6197,
      "Ġisland": 6198,
      "ĠDiv": 6199,
      "Ġlawsuit": 6200,
      "onna": 6201,
      "ĠStan": 6202,
      "ollywood": 6203,
      "Ġprohib": 6204,
      "acter": 6205,
      "ĠIts": 6206,
      "Man": 6207,
      "ĠAT": 6208,
      "ĠDou": 6209,
      "Ġaf": 6210,
      "Ġbright": 6211,
      "Ġrepresents": 6212,
      "ĠColorado": 6213,
      "ĠISIS": 6214,
      "Ġcreative": 6215,
      "Ġattempted": 6216,
      "ittle": 6217,
      "Ġnations": 6218,
      "ĠClub": 6219,
      "Ġcontest": 6220,
      "ĠBarack": 6221,
      "ĠDan": 6222,
      "ĠKim": 6223,
      "Ġagents": 6224,
      "Ġentered": 6225,
      "Qu": 6226,
      "Ġopposite": 6227,
      "Ġkit": 6228,
      "whel": 6229,
      "Ġ38": 6230,
      "Ġsession": 6231,
      "Ġsought": 6232,
      "Ġincor": 6233,
      "acle": 6234,
      "ĠRam": 6235,
      "Pol": 6236,
      "Ġmir": 6237,
      "ĠLib": 6238,
      "Ġcurrency": 6239,
      "Ġshif": 6240,
      "Ġconsistent": 6241,
      "Spe": 6242,
      "ĠRights": 6243,
      "Ġheads": 6244,
      "ĠBoy": 6245,
      "Ġnetworks": 6246,
      "Ġdiscussed": 6247,
      "Ġresolution": 6248,
      "Ġsurprised": 6249,
      "gent": 6250,
      "Ġinput": 6251,
      "Ġfairly": 6252,
      "Ġscr": 6253,
      "cho": 6254,
      "Ġfacility": 6255,
      "Ġsucceed": 6256,
      "Ġdoctors": 6257,
      "erences": 6258,
      "bel": 6259,
      "Ġentry": 6260,
      "iat": 6261,
      "ĠHol": 6262,
      "orders": 6263,
      "ĠOnly": 6264,
      "this": 6265,
      "Ġdistribution": 6266,
      "ras": 6267,
      "Ġabandon": 6268,
      "ĠBlue": 6269,
      "Ġfraud": 6270,
      "ĠHen": 6271,
      "Ġsongs": 6272,
      "icious": 6273,
      "Ġbrings": 6274,
      "Ġcheap": 6275,
      "rich": 6276,
      "Ġathlet": 6277,
      "ĠCarl": 6278,
      "Ġmedic": 6279,
      "ĠTechn": 6280,
      "68": 6281,
      "Ġprotests": 6282,
      "ĠPalestinian": 6283,
      "Ġchain": 6284,
      "Ġdownt": 6285,
      "ĠGen": 6286,
      "ĠColumb": 6287,
      "rip": 6288,
      "Ġmotor": 6289,
      "Ġlie": 6290,
      "Ġplot": 6291,
      "Ġpractices": 6292,
      "Ġdu": 6293,
      "ĠIP": 6294,
      "Ġresc": 6295,
      "ocket": 6296,
      "Ġhur": 6297,
      "ĠSaudi": 6298,
      "tion": 6299,
      "Ġbuying": 6300,
      "Ġdeaths": 6301,
      "Ġtermin": 6302,
      "Ġclassic": 6303,
      "Ġheavily": 6304,
      "ĠSecond": 6305,
      "ĠLive": 6306,
      "ologist": 6307,
      "Ġrum": 6308,
      "Ġspons": 6309,
      "ĠDie": 6310,
      "Ġthreats": 6311,
      "reland": 6312,
      "Ġadm": 6313,
      "rison": 6314,
      "Ġconsumer": 6315,
      "Ġarchitect": 6316,
      "Ġcrazy": 6317,
      "Ġadds": 6318,
      "Ġemissions": 6319,
      "fortunately": 6320,
      "Ġcolleagues": 6321,
      "Ġdecre": 6322,
      "Ġsnow": 6323,
      "anges": 6324,
      "Ġnative": 6325,
      "ĠYear": 6326,
      "Ġbot": 6327,
      "oked": 6328,
      "ĠGeorg": 6329,
      "Ġallegedly": 6330,
      "ĠLake": 6331,
      "ĠUkraine": 6332,
      "ĠAnother": 6333,
      "rations": 6334,
      "ĠCy": 6335,
      "Ġmetal": 6336,
      "Ġsquare": 6337,
      "va": 6338,
      "Ġstrange": 6339,
      "alle": 6340,
      "Ġflood": 6341,
      "ĠNBA": 6342,
      "Ġimportance": 6343,
      "ĠBat": 6344,
      "ĠBack": 6345,
      "Ġchart": 6346,
      "Ġbutton": 6347,
      "Ġoutput": 6348,
      "Ġyounger": 6349,
      "Ã¤": 6350,
      "Ġ49": 6351,
      "ĠPan": 6352,
      "Ġhighlight": 6353,
      "Ġcomfortable": 6354,
      "ĠBob": 6355,
      "Ġadults": 6356,
      "Ġreturns": 6357,
      "Ġreplaced": 6358,
      "DS": 6359,
      "olve": 6360,
      "Ġpled": 6361,
      "Ġsymbol": 6362,
      "Ġflav": 6363,
      "Ġcampus": 6364,
      "Ġroughly": 6365,
      "Ġgrown": 6366,
      "ĠTO": 6367,
      "igure": 6368,
      "ĠEach": 6369,
      "Can": 6370,
      "mates": 6371,
      "Ġfill": 6372,
      "FA": 6373,
      "ograp": 6374,
      "Ġexperim": 6375,
      "iency": 6376,
      "Ġmanage": 6377,
      "ena": 6378,
      "Ob": 6379,
      "ora": 6380,
      "ĠRE": 6381,
      "ĠHouston": 6382,
      "hips": 6383,
      "ĠBrook": 6384,
      "Ġmarketing": 6385,
      "ulous": 6386,
      "77": 6387,
      "ĠKorean": 6388,
      "def": 6389,
      "Ġblow": 6390,
      "ĠSports": 6391,
      "Ġholds": 6392,
      "Ġdescribe": 6393,
      "ORE": 6394,
      "pret": 6395,
      "omin": 6396,
      "ĠFar": 6397,
      "Ġclosely": 6398,
      "Ġbreaking": 6399,
      "Ġkinds": 6400,
      "Ġefficient": 6401,
      "Ġarticles": 6402,
      "Ġvolunte": 6403,
      "ĠMs": 6404,
      "inem": 6405,
      "ĠMaybe": 6406,
      "ĠCNN": 6407,
      "Ġessential": 6408,
      "Ġinvestors": 6409,
      "Ġpromise": 6410,
      "Ġtargets": 6411,
      "Ġcert": 6412,
      "weight": 6413,
      "ometimes": 6414,
      "Ġemotional": 6415,
      "Ġmanner": 6416,
      "Ġmotion": 6417,
      "Ġdatabase": 6418,
      "pan": 6419,
      "Ġfish": 6420,
      "ĠWars": 6421,
      "Ġrelevant": 6422,
      "Ġunem": 6423,
      "hetic": 6424,
      "iami": 6425,
      "Ġsees": 6426,
      "ĠRev": 6427,
      "Ġrestaurant": 6428,
      "bar": 6429,
      "Ġwire": 6430,
      "isms": 6431,
      "Ġ300": 6432,
      "Ġbag": 6433,
      "ĠCard": 6434,
      "stood": 6435,
      "ĠPrem": 6436,
      "Ġ34": 6437,
      "Ġharder": 6438,
      "Ġfavour": 6439,
      "ĠDam": 6440,
      "Ġdomin": 6441,
      "born": 6442,
      "ador": 6443,
      "zona": 6444,
      "Ġsuffering": 6445,
      "Ġboys": 6446,
      "Ġbon": 6447,
      "lder": 6448,
      "ÃŃ": 6449,
      "Ġopponent": 6450,
      "Ġfunctions": 6451,
      "Ġclasses": 6452,
      "Ġteachers": 6453,
      "Ġexpression": 6454,
      "Ġexistence": 6455,
      "Ġknowing": 6456,
      "friend": 6457,
      "Ġtrick": 6458,
      "ffect": 6459,
      "Ġboss": 6460,
      "atell": 6461,
      "Ġvice": 6462,
      "Ġmoments": 6463,
      "IR": 6464,
      "Ġparliament": 6465,
      "tering": 6466,
      "Ġrealized": 6467,
      "Ġtiny": 6468,
      "ĠGames": 6469,
      "iro": 6470,
      "illance": 6471,
      "Ġextent": 6472,
      "Ġagenda": 6473,
      "Ġembr": 6474,
      "ipl": 6475,
      "ĠAsia": 6476,
      "Ġacknowled": 6477,
      "ĠCharles": 6478,
      "Ġsomewhat": 6479,
      "Ġ48": 6480,
      "Ġcommitment": 6481,
      "obb": 6482,
      "Ġstring": 6483,
      "Ġdeploy": 6484,
      "athan": 6485,
      "ĠTal": 6486,
      "opy": 6487,
      "Ġcere": 6488,
      "ati": 6489,
      "Ġsquad": 6490,
      "ĠPhot": 6491,
      "53": 6492,
      "Ġregulations": 6493,
      "Ġbatt": 6494,
      "Ġintention": 6495,
      "Ġdivision": 6496,
      "Ġhoping": 6497,
      "Ġfashion": 6498,
      "FP": 6499,
      "Ġdetailed": 6500,
      "Ġdepth": 6501,
      "Ġauthors": 6502,
      "nam": 6503,
      "Ġfewer": 6504,
      "ensus": 6505,
      "efully": 6506,
      "Ġversions": 6507,
      "54": 6508,
      "po": 6509,
      "Ġwins": 6510,
      "ĠEconom": 6511,
      "Ġcycle": 6512,
      "Ġcircumstances": 6513,
      "Ġrepeatedly": 6514,
      "ĠIreland": 6515,
      "Ġpregn": 6516,
      "Ġtom": 6517,
      "aze": 6518,
      "Ġstream": 6519,
      "Ġphen": 6520,
      "Ġstudio": 6521,
      "otic": 6522,
      "ĠNY": 6523,
      "Ġguide": 6524,
      "Ġserving": 6525,
      "Ġskill": 6526,
      "Com": 6527,
      "esc": 6528,
      "Ġcontroversial": 6529,
      "ĠMax": 6530,
      "Ġsuicide": 6531,
      "Ġmeat": 6532,
      "ĠHel": 6533,
      "ĠOffic": 6534,
      "Ġindustrial": 6535,
      "Ġliqu": 6536,
      "Ġmouth": 6537,
      "Ġintent": 6538,
      "Ġcarrying": 6539,
      "uable": 6540,
      "Ġsyn": 6541,
      "Ġassets": 6542,
      "ĠAnn": 6543,
      "Ġisol": 6544,
      "arden": 6545,
      "ĠHist": 6546,
      "Ġartists": 6547,
      "Ġsister": 6548,
      "ĠValley": 6549,
      "emies": 6550,
      "ĠLord": 6551,
      "ĠEric": 6552,
      "Ġhardware": 6553,
      "Ġpal": 6554,
      "Ġdry": 6555,
      "Ġsimpl": 6556,
      "Ġancient": 6557,
      "ĠWild": 6558,
      "ko": 6559,
      "Ġsample": 6560,
      "ĠSoviet": 6561,
      "ãĥ": 6562,
      "Ġhat": 6563,
      "Two": 6564,
      "ĠDetroit": 6565,
      "Ġinstru": 6566,
      "Ġsharing": 6567,
      "erves": 6568,
      "08": 6569,
      "agan": 6570,
      "Ġtargeted": 6571,
      "Ġsubsid": 6572,
      "ĠMen": 6573,
      "Ġdefined": 6574,
      "ĠNASA": 6575,
      "ixt": 6576,
      "Ġwid": 6577,
      "ĠYouTube": 6578,
      "Ġtrees": 6579,
      "mal": 6580,
      "51": 6581,
      "Ġheight": 6582,
      "Ġstores": 6583,
      "otal": 6584,
      "ellect": 6585,
      "Ġdesk": 6586,
      "ĠDavis": 6587,
      "west": 6588,
      "Ġwave": 6589,
      "ĠJr": 6590,
      "Ġnewslet": 6591,
      "Ġbear": 6592,
      "Ġillust": 6593,
      "Ġtransp": 6594,
      "Ġnav": 6595,
      "sole": 6596,
      "Ġthread": 6597,
      "ĠAgain": 6598,
      "iveness": 6599,
      "Ġeating": 6600,
      "ĠWat": 6601,
      "ĠWalk": 6602,
      "ĠEnergy": 6603,
      "Ġregional": 6604,
      "Ġacting": 6605,
      "Ġbehavi": 6606,
      "Ġexcellent": 6607,
      "Ġliterally": 6608,
      "Ġlibrary": 6609,
      "andal": 6610,
      "Ġlies": 6611,
      "amily": 6612,
      "ua": 6613,
      "ĠDC": 6614,
      "Ġimmediate": 6615,
      "Ġfemin": 6616,
      "ns": 6617,
      "Ġdeeply": 6618,
      "Ġfundamental": 6619,
      "Ġurban": 6620,
      "Ġoccasion": 6621,
      "hus": 6622,
      "ĠRight": 6623,
      "Ġunus": 6624,
      "Ġstruck": 6625,
      "Ġupdated": 6626,
      "Ġschedule": 6627,
      "Despite": 6628,
      "ĠTop": 6629,
      "ĠGar": 6630,
      "Ġmaximum": 6631,
      "Ġformed": 6632,
      "Ġwage": 6633,
      "Ġfeatured": 6634,
      "uated": 6635,
      "Ġdecline": 6636,
      "lls": 6637,
      "Ġforth": 6638,
      "ĠOF": 6639,
      "Ġwinter": 6640,
      "ĠWik": 6641,
      "iscal": 6642,
      "Ġwalked": 6643,
      "Like": 6644,
      "dis": 6645,
      "allas": 6646,
      "Ġopponents": 6647,
      "Ġearned": 6648,
      "Ġbattery": 6649,
      "ographic": 6650,
      "Ġparticipants": 6651,
      "VER": 6652,
      "mes": 6653,
      "utation": 6654,
      "Ġapproval": 6655,
      "Ġfolks": 6656,
      "Ġuncle": 6657,
      "Ġdedicated": 6658,
      "ĠKen": 6659,
      "Ġimpressive": 6660,
      "Ġdefeat": 6661,
      "Ġpushing": 6662,
      "ĠElect": 6663,
      "foot": 6664,
      "Ġblame": 6665,
      "Ġmatches": 6666,
      "post": 6667,
      "Ġowned": 6668,
      "ĠLove": 6669,
      "Ġacts": 6670,
      "ĠPlan": 6671,
      "Ġcustomer": 6672,
      "Ġdiet": 6673,
      "Ġhall": 6674,
      "aylor": 6675,
      "Ã¼": 6676,
      "ican": 6677,
      "Ġpayment": 6678,
      "Ġhotel": 6679,
      "98": 6680,
      "ao": 6681,
      "Ġbra": 6682,
      "alian": 6683,
      "Ġusual": 6684,
      "Ġspan": 6685,
      "print": 6686,
      "52": 6687,
      "umber": 6688,
      "ĠHome": 6689,
      "Ġmainstream": 6690,
      "Ġremote": 6691,
      "Ġsigning": 6692,
      "ĠMot": 6693,
      "ceived": 6694,
      "Ġcommunication": 6695,
      "Ġselection": 6696,
      "chers": 6697,
      "owa": 6698,
      "Ġtested": 6699,
      "utch": 6700,
      "gery": 6701,
      "Ġcompetitive": 6702,
      "iger": 6703,
      "Ġaside": 6704,
      "rates": 6705,
      "Ġcontrolled": 6706,
      "Ġteacher": 6707,
      "Ġprotected": 6708,
      "ĠDefense": 6709,
      "Ġrape": 6710,
      "ĠPolit": 6711,
      "ĠScotland": 6712,
      "rong": 6713,
      "Yes": 6714,
      "Ġsand": 6715,
      "kish": 6716,
      "Ġalongside": 6717,
      "Ġzero": 6718,
      "Ġprecise": 6719,
      "Ġoverwhel": 6720,
      "Ġformat": 6721,
      "Ġfees": 6722,
      "Ġbug": 6723,
      "Ġwatched": 6724,
      "Ġinspired": 6725,
      "ĠNHL": 6726,
      "Ġinvolving": 6727,
      "Ġempty": 6728,
      "Ġdealing": 6729,
      "Ġselected": 6730,
      "ĠStephen": 6731,
      "Ġsending": 6732,
      "ĠCle": 6733,
      "Ġreferred": 6734,
      "Ġnoticed": 6735,
      "ĠSupp": 6736,
      "Ġlicense": 6737,
      "ensity": 6738,
      "Ġdeals": 6739,
      "ĠEnter": 6740,
      "Ġsweet": 6741,
      "Ġsurrounding": 6742,
      "People": 6743,
      "ugh": 6744,
      "ĠLong": 6745,
      "ocation": 6746,
      "Ġchampion": 6747,
      "ĠPacific": 6748,
      "Ġlatter": 6749,
      "Ġneut": 6750,
      "Ġ1970": 6751,
      "04": 6752,
      "Ġsole": 6753,
      "Ġcausing": 6754,
      "ĠFil": 6755,
      "Ġsho": 6756,
      "Ġalive": 6757,
      "ĠAut": 6758,
      "Donald": 6759,
      "Int": 6760,
      "ademy": 6761,
      "abis": 6762,
      "ĠKevin": 6763,
      "âĢĶâĢĶâĢĶâĢĶ": 6764,
      "NC": 6765,
      "agram": 6766,
      "Ġfrequently": 6767,
      "Ġchairman": 6768,
      "Ġfuck": 6769,
      "Ġescape": 6770,
      "Ġuniverse": 6771,
      "celer": 6772,
      "ĠDev": 6773,
      "Ġrelationships": 6774,
      "Ġslowly": 6775,
      "Ġharass": 6776,
      "Ġbasket": 6777,
      "woman": 6778,
      "Ġconstant": 6779,
      "rive": 6780,
      "ĠGra": 6781,
      "Ġobserved": 6782,
      "Or": 6783,
      "ĠDi": 6784,
      "azi": 6785,
      "\">": 6786,
      "Ġtruck": 6787,
      "Ġchannel": 6788,
      "phy": 6789,
      "Ġfixed": 6790,
      "cript": 6791,
      "lv": 6792,
      "Ġmoder": 6793,
      "izz": 6794,
      "Ġevolution": 6795,
      "ordan": 6796,
      "ii": 6797,
      "orted": 6798,
      "ĠVan": 6799,
      "Ġsuddenly": 6800,
      "Ġsky": 6801,
      "ĠSpanish": 6802,
      "ĠCast": 6803,
      "Ġfacilities": 6804,
      "ĠArizona": 6805,
      "ockey": 6806,
      "Ġflu": 6807,
      "Ġdrag": 6808,
      "Ġunknown": 6809,
      "ayers": 6810,
      "Ġletters": 6811,
      "Ġterrorism": 6812,
      "Ġsoul": 6813,
      "mpt": 6814,
      "Ġpromised": 6815,
      "Ġalg": 6816,
      "aug": 6817,
      "Ã¶": 6818,
      "ĠHun": 6819,
      "luding": 6820,
      "Ġestimates": 6821,
      "itarian": 6822,
      "style": 6823,
      "ĠSar": 6824,
      "there": 6825,
      "Ġarguments": 6826,
      "ĠLight": 6827,
      "Ġsustain": 6828,
      "Ġanyway": 6829,
      "Ġcongress": 6830,
      "Ġdecent": 6831,
      "Ġscheme": 6832,
      "ĠCam": 6833,
      "ivery": 6834,
      "Ġputs": 6835,
      "Ġcondem": 6836,
      "chen": 6837,
      "ĠItaly": 6838,
      "Ġwake": 6839,
      "Ġjourney": 6840,
      "Ġpip": 6841,
      "Ġupcoming": 6842,
      "mun": 6843,
      "onic": 6844,
      "Ġthreatened": 6845,
      "Ġdestroyed": 6846,
      "ĠCatholic": 6847,
      "rary": 6848,
      "Ġvillage": 6849,
      "Ġrisks": 6850,
      "Ġcoffee": 6851,
      "Ġpassion": 6852,
      "Ġexplore": 6853,
      "Ġped": 6854,
      "sm": 6855,
      "Ġdiagn": 6856,
      "GBT": 6857,
      "Ġproperties": 6858,
      "ta": 6859,
      "ĠHollywood": 6860,
      "Ġlikes": 6861,
      "Ġterritory": 6862,
      "Ġshel": 6863,
      "ĠTit": 6864,
      "Ġgod": 6865,
      "Ġextended": 6866,
      "text": 6867,
      "Ġrub": 6868,
      "nic": 6869,
      "inson": 6870,
      "owed": 6871,
      "ĠJava": 6872,
      "Ġrecognize": 6873,
      "rence": 6874,
      "apse": 6875,
      "acc": 6876,
      "ĠThank": 6877,
      "Ġfalling": 6878,
      "ĠCamer": 6879,
      "asts": 6880,
      "Ġdiscover": 6881,
      "Ġanx": 6882,
      "Ġexhib": 6883,
      "Ġmistake": 6884,
      "Ġfranchise": 6885,
      "MS": 6886,
      "Ġpic": 6887,
      "ĠMiami": 6888,
      "ĠChild": 6889,
      "Ġposts": 6890,
      "Ġorders": 6891,
      "ĠVol": 6892,
      "Ġtypical": 6893,
      "ĠDown": 6894,
      "ĠOld": 6895,
      "Getty": 6896,
      "Rel": 6897,
      "ĠWatch": 6898,
      "Ġmeetings": 6899,
      "Ġhyd": 6900,
      "ĠFord": 6901,
      "Ġproperly": 6902,
      "Ġvolume": 6903,
      "adel": 6904,
      "owered": 6905,
      "Ġassume": 6906,
      "Ġsupports": 6907,
      "Ġwelcome": 6908,
      "Ġsomewhere": 6909,
      "Ġeast": 6910,
      "Ġrequests": 6911,
      "Ġwal": 6912,
      "onymous": 6913,
      "rors": 6914,
      "Ġtort": 6915,
      "Ġfasc": 6916,
      "ĠFour": 6917,
      "Ġsight": 6918,
      "ĠBalt": 6919,
      "Ġreward": 6920,
      "Ġexciting": 6921,
      "Ġoblig": 6922,
      "arrative": 6923,
      "Ġnomine": 6924,
      "88": 6925,
      "Ġwest": 6926,
      "acking": 6927,
      "Ġjournalists": 6928,
      "Ġcomparison": 6929,
      "Ġicon": 6930,
      "ether": 6931,
      "Ġchose": 6932,
      "ĠYoung": 6933,
      "Ġproof": 6934,
      "Ġdelegates": 6935,
      "ĠBell": 6936,
      "Ġemployment": 6937,
      "Any": 6938,
      "ĠBas": 6939,
      "Ġdriven": 6940,
      "ĠDig": 6941,
      "Ġconfront": 6942,
      "pected": 6943,
      "Ġmerely": 6944,
      "Ġcup": 6945,
      "inding": 6946,
      "Ġsomebody": 6947,
      "Ġimmigrants": 6948,
      "Ġdisag": 6949,
      "Ġcrash": 6950,
      "ĠLand": 6951,
      "Ġregions": 6952,
      "Ġapproximately": 6953,
      "Ġ00": 6954,
      "ĠMic": 6955,
      "Ġfinds": 6956,
      "ĠSC": 6957,
      "enders": 6958,
      "PC": 6959,
      "Ġbunch": 6960,
      "alo": 6961,
      "Ġgap": 6962,
      "oster": 6963,
      "Ġequival": 6964,
      "ĠBrad": 6965,
      "Ġamounts": 6966,
      "Ġchosen": 6967,
      "Ġemployee": 6968,
      "ĠWay": 6969,
      "Ġobtained": 6970,
      "ĠAdminist": 6971,
      "Ġexception": 6972,
      "zens": 6973,
      "Ġstronger": 6974,
      "________________": 6975,
      "âĢĻ.": 6976,
      "ĠBest": 6977,
      "Ġplastic": 6978,
      "Ġcommunications": 6979,
      "oration": 6980,
      "usse": 6981,
      "Ġvirtual": 6982,
      "Ġrefugees": 6983,
      "Ġfold": 6984,
      "Ġpayments": 6985,
      "ĠSouthern": 6986,
      "ĠStand": 6987,
      "Ñģ": 6988,
      "ĠKn": 6989,
      "Ġnorthern": 6990,
      "Ġcutting": 6991,
      "Ġnarrow": 6992,
      "ĠWomen": 6993,
      "Ġallies": 6994,
      "Ġrequirements": 6995,
      "Ġtournament": 6996,
      "Ġhits": 6997,
      "Ġsouthern": 6998,
      "Ġphase": 6999,
      "Ġreasonable": 7000,
      "fire": 7001,
      "ĠEll": 7002,
      "redit": 7003,
      "Ġperfectly": 7004,
      "Ġdress": 7005,
      "Ġdirected": 7006,
      "uilding": 7007,
      "ĠSociety": 7008,
      "ĠLu": 7009,
      "Ġprofile": 7010,
      "core": 7011,
      "gender": 7012,
      "Ġdad": 7013,
      "ĠView": 7014,
      "Ġble": 7015,
      "Ġloan": 7016,
      "mo": 7017,
      "Ġenemies": 7018,
      "ĠServices": 7019,
      "iana": 7020,
      "Ġprotesters": 7021,
      "Ġtopic": 7022,
      "ĠRoman": 7023,
      "ĠNight": 7024,
      "Ġexposed": 7025,
      "Ġbid": 7026,
      "Ġfighters": 7027,
      "Ġspin": 7028,
      "itar": 7029,
      "arity": 7030,
      "Ġdesper": 7031,
      "\\/": 7032,
      "Ġstim": 7033,
      "ĠNetwork": 7034,
      "John": 7035,
      "asks": 7036,
      "ĠFort": 7037,
      "osis": 7038,
      "da": 7039,
      "ĠFre": 7040,
      "raid": 7041,
      "pes": 7042,
      "ĠArch": 7043,
      "Ġpod": 7044,
      "Ġlocations": 7045,
      "Ġpromote": 7046,
      "Te": 7047,
      "Ġcritics": 7048,
      "Ġflying": 7049,
      "ingu": 7050,
      "ĠCD": 7051,
      "Ġattacked": 7052,
      "ĠCompany": 7053,
      "Ġresistance": 7054,
      "Ġgang": 7055,
      "cers": 7056,
      "Ġparam": 7057,
      "eping": 7058,
      "Ġlimits": 7059,
      "Ġinqu": 7060,
      "Ġstretch": 7061,
      "Police": 7062,
      "Fr": 7063,
      "ye": 7064,
      "oric": 7065,
      "arry": 7066,
      "Ġelectricity": 7067,
      "300": 7068,
      "press": 7069,
      "Ġcaptured": 7070,
      "Ġsurveillance": 7071,
      "Ġaspects": 7072,
      "Ġdrawn": 7073,
      "Ġgotten": 7074,
      "imore": 7075,
      "Ġretire": 7076,
      "Ġelsewhere": 7077,
      "Ġcontem": 7078,
      "ĠMiller": 7079,
      "Ġideal": 7080,
      "rete": 7081,
      "Ġitem": 7082,
      "Ġhouses": 7083,
      "ĠRog": 7084,
      "Ġ75": 7085,
      "Ġcontrols": 7086,
      "ĠNations": 7087,
      "Ġstrongly": 7088,
      "Ġpurposes": 7089,
      "Ġpersonally": 7090,
      "Ġencourage": 7091,
      "fast": 7092,
      "aser": 7093,
      "02": 7094,
      "ĠLabor": 7095,
      "Ġworried": 7096,
      "Ġunp": 7097,
      "Ġphenomen": 7098,
      "Ġoccas": 7099,
      "chain": 7100,
      "Ġ42": 7101,
      "ĠCoast": 7102,
      "ĠPutin": 7103,
      "inch": 7104,
      "ums": 7105,
      ".\"[": 7106,
      "Ġcategory": 7107,
      "ĠDun": 7108,
      "Ġblocks": 7109,
      "irms": 7110,
      "ĠJersey": 7111,
      "iform": 7112,
      "ĠDNA": 7113,
      "Ġprimarily": 7114,
      "star": 7115,
      "ĠTurn": 7116,
      "ciples": 7117,
      "Ġpolls": 7118,
      "Ġpenalty": 7119,
      "Ġraising": 7120,
      "ĠPen": 7121,
      "Ġcolon": 7122,
      "ĠMoore": 7123,
      "from": 7124,
      "Ġconfig": 7125,
      "Ġties": 7126,
      "ura": 7127,
      "Ġapartment": 7128,
      "RC": 7129,
      "Ġflex": 7130,
      "Ġunderstood": 7131,
      "Ġending": 7132,
      "Ġmixed": 7133,
      "Ġconstit": 7134,
      "Ġresulting": 7135,
      "67": 7136,
      "Ġbench": 7137,
      "Ġfifth": 7138,
      "ĠCIA": 7139,
      "ĠAgency": 7140,
      "era": 7141,
      "Ġwinner": 7142,
      "ĠDespite": 7143,
      "kay": 7144,
      "stone": 7145,
      "ĠBrian": 7146,
      "acked": 7147,
      "Ġindex": 7148,
      "Ġclaiming": 7149,
      "Ġcourts": 7150,
      "Ġnut": 7151,
      "imp": 7152,
      "Ġregularly": 7153,
      "Ġadmit": 7154,
      "Ġrecovery": 7155,
      "Ġexplanation": 7156,
      "hent": 7157,
      "Ġbes": 7158,
      "verty": 7159,
      "Ġcollected": 7160,
      "yo": 7161,
      "oria": 7162,
      "Ġupper": 7163,
      "Ġcomprom": 7164,
      "Inst": 7165,
      "Ġmagic": 7166,
      "ĠCare": 7167,
      "Ġpunish": 7168,
      "html": 7169,
      "Ġtheme": 7170,
      "ĠNick": 7171,
      "Ġintellect": 7172,
      "Ġanymore": 7173,
      "Ġextensive": 7174,
      "ĠPS": 7175,
      "Ġsomehow": 7176,
      "ĠBru": 7177,
      "Ġcoalition": 7178,
      "++": 7179,
      "oming": 7180,
      "unning": 7181,
      "Ġpoverty": 7182,
      "Ġdistinct": 7183,
      "Ġprofit": 7184,
      "Ġatmosphere": 7185,
      "ifications": 7186,
      "otes": 7187,
      "Ġrival": 7188,
      "Ġcomponents": 7189,
      "Ġchoices": 7190,
      "Ġprovince": 7191,
      "ĠGall": 7192,
      "Ġhonor": 7193,
      "Ġpilot": 7194,
      "ĠDark": 7195,
      "Ġbaseball": 7196,
      "Ġfields": 7197,
      "Ġdogs": 7198,
      "Ġmurd": 7199,
      "Ġrig": 7200,
      "cling": 7201,
      "ĠOS": 7202,
      "nesota": 7203,
      "Ġweird": 7204,
      "ĪĴ": 7205,
      "07": 7206,
      "ala": 7207,
      "ĠFC": 7208,
      "ĠSenator": 7209,
      "ĠEduc": 7210,
      "Ġoutcome": 7211,
      "mont": 7212,
      "Ġroster": 7213,
      "axy": 7214,
      "EW": 7215,
      "Ġaggressive": 7216,
      "asters": 7217,
      "ĠRay": 7218,
      "Ġbrew": 7219,
      "Ġtrib": 7220,
      "ĠTest": 7221,
      "ĠPR": 7222,
      "Ġconver": 7223,
      "Ġnobody": 7224,
      "Ġmachines": 7225,
      "Ġnarrative": 7226,
      "Ġconstantly": 7227,
      "Ġmayor": 7228,
      "Ġtechniques": 7229,
      "Ġrejected": 7230,
      "Ġactor": 7231,
      "Ġtechnologies": 7232,
      "cow": 7233,
      "boy": 7234,
      "Ġsignal": 7235,
      "ĠAttorney": 7236,
      "Ġconven": 7237,
      "Ġtied": 7238,
      "Ġbills": 7239,
      "ĠContin": 7240,
      "Ġtrading": 7241,
      "Ġsituations": 7242,
      "month": 7243,
      "Ð½": 7244,
      "Ġmail": 7245,
      "Ġmanip": 7246,
      "Ġrecording": 7247,
      "Ġsolutions": 7248,
      "Ġdefinition": 7249,
      "ĠJoseph": 7250,
      "Ġawesome": 7251,
      "isan": 7252,
      "Ġroutine": 7253,
      "Ġhabit": 7254,
      "ĠWhere": 7255,
      "han": 7256,
      "Ġimper": 7257,
      "icken": 7258,
      "Ġ%": 7259,
      "Ġworldwide": 7260,
      "Ġconcluded": 7261,
      "Sec": 7262,
      "Ġteaching": 7263,
      "ĠPay": 7264,
      "ĠReal": 7265,
      "Ġconsumption": 7266,
      "pool": 7267,
      "Ġanswers": 7268,
      "Ġelite": 7269,
      "ĠProgram": 7270,
      "list": 7271,
      "inations": 7272,
      "Ġdozen": 7273,
      "Ġvaluable": 7274,
      "ĠAPI": 7275,
      "ĠTake": 7276,
      "rypt": 7277,
      "Ġaccurate": 7278,
      "ĠIrish": 7279,
      "->": 7280,
      "Also": 7281,
      "UR": 7282,
      "ĠClass": 7283,
      "Ġassistance": 7284,
      "09": 7285,
      "Ġgranted": 7286,
      "Today": 7287,
      "Ġsatell": 7288,
      "Ġruled": 7289,
      "ĠGeorgia": 7290,
      "lock": 7291,
      "ali": 7292,
      "ca": 7293,
      "ĠIowa": 7294,
      "Ġprote": 7295,
      "Ġdeveloper": 7296,
      "Ġtaste": 7297,
      "Ġacademic": 7298,
      "ÑĢ": 7299,
      "Ġcontributed": 7300,
      "Ġexcess": 7301,
      "Ġmedium": 7302,
      "Ġdrinking": 7303,
      "Ġphr": 7304,
      "Ġconscious": 7305,
      "Ġdollar": 7306,
      "ĠInf": 7307,
      "Ġinformed": 7308,
      "Ġstuck": 7309,
      "ĠDallas": 7310,
      "Ġincredible": 7311,
      "ilarly": 7312,
      "Ġseats": 7313,
      "abama": 7314,
      "ĠGi": 7315,
      "HA": 7316,
      "ashes": 7317,
      "ĠId": 7318,
      "urb": 7319,
      "lers": 7320,
      "Ġrus": 7321,
      "ĠLew": 7322,
      "Ġengage": 7323,
      "Ġevil": 7324,
      "Ġcomplicated": 7325,
      "Ġ1999": 7326,
      "otten": 7327,
      "ĠRick": 7328,
      "ials": 7329,
      "ĠConstitution": 7330,
      "Once": 7331,
      "ĠDaniel": 7332,
      "Ġincl": 7333,
      "Ġinfect": 7334,
      "Ġtall": 7335,
      "Ġ39": 7336,
      "rage": 7337,
      "Ġreporter": 7338,
      "ĠMS": 7339,
      "ĠThough": 7340,
      "Ġsympt": 7341,
      "Ġru": 7342,
      "Ġcrucial": 7343,
      "itals": 7344,
      "Ġcontinuing": 7345,
      "Ġwriters": 7346,
      "Ġstead": 7347,
      "ĠThanks": 7348,
      "Ġdepending": 7349,
      "ĠOrgan": 7350,
      "Ġtracks": 7351,
      "Ġkil": 7352,
      "Ġencoun": 7353,
      "ĠâĢĻ": 7354,
      "ĠZeal": 7355,
      "EA": 7356,
      "sters": 7357,
      "rome": 7358,
      "ĠEnd": 7359,
      "Ġphones": 7360,
      "Ġpaint": 7361,
      "Ġblind": 7362,
      "ĠCivil": 7363,
      "ĠSpain": 7364,
      "Ġlawyers": 7365,
      "ĠAuthor": 7366,
      "Ġven": 7367,
      "ĠKent": 7368,
      "Ġreturning": 7369,
      "Ġchances": 7370,
      "Ġexposure": 7371,
      "ĠSteven": 7372,
      "Ġangry": 7373,
      "vy": 7374,
      "Ġtaught": 7375,
      "bal": 7376,
      "Ġads": 7377,
      "Ġshares": 7378,
      "Ġextract": 7379,
      "mod": 7380,
      "Ġdeck": 7381,
      "Ġofficially": 7382,
      "Ġrepresented": 7383,
      "MP": 7384,
      "sex": 7385,
      "ĠEr": 7386,
      "ĠParliament": 7387,
      "emen": 7388,
      "Post": 7389,
      "ĠRand": 7390,
      "Ġsolve": 7391,
      "essed": 7392,
      "Ġproved": 7393,
      "Ġdegrees": 7394,
      "ĠHot": 7395,
      "Ġnewly": 7396,
      "ureau": 7397,
      "ogen": 7398,
      "Ġenthus": 7399,
      "Ġterrible": 7400,
      "Ġtank": 7401,
      "ĠSk": 7402,
      "Ġexists": 7403,
      "ĠBowl": 7404,
      "Ġcompens": 7405,
      "Ġinterface": 7406,
      "Ġcapture": 7407,
      "ĠDar": 7408,
      "everal": 7409,
      "obile": 7410,
      "Ġvisited": 7411,
      "Ġautomatically": 7412,
      "Ġengaged": 7413,
      "oz": 7414,
      "Ġgenerate": 7415,
      "Ġpossession": 7416,
      "piracy": 7417,
      "Ġconclusion": 7418,
      "Ġboot": 7419,
      "Ġchampionship": 7420,
      "Ġincredibly": 7421,
      "Ġdefence": 7422,
      "UL": 7423,
      "ship": 7424,
      "Ġlawmakers": 7425,
      "69": 7426,
      "Ġ400": 7427,
      "Ġsurgery": 7428,
      "Ġinterpret": 7429,
      "iner": 7430,
      "ĠCirc": 7431,
      "Ġmonit": 7432,
      "Ġkeeps": 7433,
      "Ġestate": 7434,
      "igation": 7435,
      "Ġfounder": 7436,
      "Ġcomplaint": 7437,
      "bro": 7438,
      "ĠWilson": 7439,
      "regon": 7440,
      "Ġticket": 7441,
      "Ġdowntown": 7442,
      "ref": 7443,
      "Ġgro": 7444,
      "Ġneuro": 7445,
      "Ġdemands": 7446,
      "Ġgoods": 7447,
      "ĠUt": 7448,
      "aph": 7449,
      "wan": 7450,
      "aron": 7451,
      "ĠJordan": 7452,
      "Ġprocesses": 7453,
      "ĠStill": 7454,
      "Ġscenes": 7455,
      "ĠLook": 7456,
      "Ġpermanent": 7457,
      "ĠTw": 7458,
      "Ġfake": 7459,
      "Ġrecru": 7460,
      "Ġfiscal": 7461,
      "Ġcompre": 7462,
      "rell": 7463,
      "earing": 7464,
      "Ġ150": 7465,
      "ĠNC": 7466,
      "Ġengineering": 7467,
      "aning": 7468,
      "ĠColl": 7469,
      "ĠItalian": 7470,
      "ML": 7471,
      "Ġaudio": 7472,
      "gun": 7473,
      "Ġsufficient": 7474,
      "ĠSea": 7475,
      "Ġprogramming": 7476,
      "Ġwestern": 7477,
      "ĠTony": 7478,
      "Ġresulted": 7479,
      "Ġregistered": 7480,
      "ima": 7481,
      "Ġplate": 7482,
      "Ġrarely": 7483,
      "ads": 7484,
      "Ġmarked": 7485,
      "abs": 7486,
      "Ġbom": 7487,
      "Ġdict": 7488,
      "Ġrating": 7489,
      "Ġextension": 7490,
      "HS": 7491,
      "Ġbrut": 7492,
      "Ġpounds": 7493,
      "ĠReport": 7494,
      "Ġpersonnel": 7495,
      "Col": 7496,
      "ĠTem": 7497,
      "Ġenable": 7498,
      "Ġequivalent": 7499,
      "amber": 7500,
      "Ġgaming": 7501,
      "ĠCome": 7502,
      "scape": 7503,
      "Because": 7504,
      "erm": 7505,
      "intend": 7506,
      "Ġparking": 7507,
      "ĠLGBT": 7508,
      "Ġdiscipl": 7509,
      "Ġsuccessfully": 7510,
      "Ġfeedback": 7511,
      "Ġdoors": 7512,
      "Ġclients": 7513,
      "Ġ44": 7514,
      "upid": 7515,
      "Ġanticip": 7516,
      "ĠTurkish": 7517,
      "ptic": 7518,
      "ilton": 7519,
      "Ġtherap": 7520,
      "istent": 7521,
      "Ġmyth": 7522,
      "Ġinstalled": 7523,
      "Ġuncertain": 7524,
      "orough": 7525,
      "Ġ($": 7526,
      "rently": 7527,
      "ĠForeign": 7528,
      "%.": 7529,
      "rep": 7530,
      "ĠNorthern": 7531,
      "ĠFood": 7532,
      "Ġaccomp": 7533,
      "Ġoverse": 7534,
      "uce": 7535,
      "Ġoperate": 7536,
      "03": 7537,
      "Ġdescribes": 7538,
      "orith": 7539,
      "idency": 7540,
      "Ġintense": 7541,
      "aire": 7542,
      "Ġaimed": 7543,
      "ĠDiego": 7544,
      "Ġadvis": 7545,
      "aturally": 7546,
      "Ġassistant": 7547,
      "uine": 7548,
      "Ġocean": 7549,
      "Ġprominent": 7550,
      "Ġprofession": 7551,
      "esy": 7552,
      "ĠCO": 7553,
      "thony": 7554,
      "Ġracial": 7555,
      "ĠCat": 7556,
      "Ġsurvive": 7557,
      "ĠGreg": 7558,
      "Ġrecip": 7559,
      "Ġportion": 7560,
      "ĠZealand": 7561,
      "Ġyield": 7562,
      "Ġmainly": 7563,
      "Ġpace": 7564,
      "ĠWin": 7565,
      "quarters": 7566,
      "ĠOper": 7567,
      "ĠOtt": 7568,
      "Dr": 7569,
      "ĠChampionship": 7570,
      "anny": 7571,
      "rific": 7572,
      "ĠMinnesota": 7573,
      "Ġiron": 7574,
      "Ġcompete": 7575,
      "Ġthick": 7576,
      "ĠOak": 7577,
      "Ġlanguages": 7578,
      "ĠAdam": 7579,
      "Ġacceler": 7580,
      "Ġlights": 7581,
      "Ġafraid": 7582,
      "etary": 7583,
      "lights": 7584,
      "ifer": 7585,
      "Ġsup": 7586,
      "Ġcorruption": 7587,
      "front": 7588,
      "Ġfirms": 7589,
      "obs": 7590,
      "ĠSpecial": 7591,
      "ĠSnow": 7592,
      "igen": 7593,
      "ĠViet": 7594,
      "cription": 7595,
      "Ġthin": 7596,
      "Ġadvertising": 7597,
      "06": 7598,
      "uan": 7599,
      "ĠCa": 7600,
      "ologists": 7601,
      "TR": 7602,
      "inity": 7603,
      "Ġstrict": 7604,
      "Ġadopted": 7605,
      "Ġcreates": 7606,
      "who": 7607,
      "ĠKurd": 7608,
      "Ġregardless": 7609,
      "%)": 7610,
      "Ġbath": 7611,
      "Ġriver": 7612,
      "Ġwithdraw": 7613,
      "Ġeverywhere": 7614,
      "Ġcontracts": 7615,
      "Ġfee": 7616,
      "viously": 7617,
      "ĠBull": 7618,
      "Ġ55": 7619,
      "Ġorganized": 7620,
      "Ġbitcoin": 7621,
      "Ġtap": 7622,
      "Ġwing": 7623,
      "Ġprinciples": 7624,
      "ami": 7625,
      "ifies": 7626,
      "Rec": 7627,
      "portion": 7628,
      "Ġstrikes": 7629,
      "ĠNation": 7630,
      "ibilities": 7631,
      "taining": 7632,
      "lete": 7633,
      "Ġdelivery": 7634,
      "UN": 7635,
      "Ġmel": 7636,
      "ules": 7637,
      "Ġtroub": 7638,
      "Ġvulnerable": 7639,
      "Ġfoundation": 7640,
      "Ġloud": 7641,
      "idelines": 7642,
      "Ed": 7643,
      "ĠPent": 7644,
      "Ġborrow": 7645,
      "thew": 7646,
      "GE": 7647,
      "Ġentit": 7648,
      "Ġattended": 7649,
      "Ġgenerated": 7650,
      "ĠCentre": 7651,
      "BO": 7652,
      "LC": 7653,
      "bec": 7654,
      "Ġthousand": 7655,
      "rators": 7656,
      "aun": 7657,
      "Ġenorm": 7658,
      "ĠAlabama": 7659,
      "Ġtaxp": 7660,
      "https": 7661,
      "ĠInvest": 7662,
      "Ġproducer": 7663,
      "Ġinnoc": 7664,
      "Ġveteran": 7665,
      "Ġextrem": 7666,
      "rative": 7667,
      "sea": 7668,
      "Ġstable": 7669,
      "Ġabortion": 7670,
      "ĠAR": 7671,
      "Mar": 7672,
      "ira": 7673,
      "azz": 7674,
      "ĠLinux": 7675,
      "ĠTaylor": 7676,
      "Ġdisaster": 7677,
      "mented": 7678,
      "Ġrecognition": 7679,
      "Ġprivile": 7680,
      "ĠUFC": 7681,
      "Ġrestrictions": 7682,
      "osa": 7683,
      "Ġreputation": 7684,
      "Ġwarming": 7685,
      "Ġminority": 7686,
      "adelph": 7687,
      "igg": 7688,
      "ĠNavy": 7689,
      "Ġshock": 7690,
      "anchester": 7691,
      "ĠMajor": 7692,
      "ĠSP": 7693,
      "uted": 7694,
      "Ġfunny": 7695,
      "ria": 7696,
      "Ġestablishment": 7697,
      "ĠHay": 7698,
      "Ġduty": 7699,
      "jo": 7700,
      "icate": 7701,
      "Ġgonna": 7702,
      "Ġexpectations": 7703,
      "Ġexplicit": 7704,
      "ĠConf": 7705,
      "Ġcameras": 7706,
      "Ġobst": 7707,
      "Ġemerged": 7708,
      "power": 7709,
      "ĠBusiness": 7710,
      "ĠFoot": 7711,
      "alling": 7712,
      "Ġfinance": 7713,
      "ĠDead": 7714,
      "ĠRoyal": 7715,
      "ĠJason": 7716,
      "ĠKelly": 7717,
      "Ġhidden": 7718,
      "prise": 7719,
      "ĠAsian": 7720,
      "Ġridic": 7721,
      "Ġwelf": 7722,
      "Ġdozens": 7723,
      "isp": 7724,
      "osexual": 7725,
      "Ġtitles": 7726,
      "Ġnegotiations": 7727,
      "Ġunw": 7728,
      "Ġcounty": 7729,
      "EP": 7730,
      "ĠArm": 7731,
      "Ġwalls": 7732,
      "Ġshit": 7733,
      "Ġbusy": 7734,
      "Ġshortly": 7735,
      "Ġfought": 7736,
      "Ġaffili": 7737,
      "ĠEducation": 7738,
      "adelphia": 7739,
      "olis": 7740,
      "ĠDevelopment": 7741,
      "cles": 7742,
      "Ġformal": 7743,
      "Ġwelfare": 7744,
      "Ġgrass": 7745,
      "Ġveget": 7746,
      "making": 7747,
      "ĠRet": 7748,
      "Ġrose": 7749,
      "ĠVis": 7750,
      "ĠOs": 7751,
      "Ġfootage": 7752,
      "ĠMoscow": 7753,
      "Ġcomputers": 7754,
      "Ġachieved": 7755,
      "ĠAh": 7756,
      "Ġstations": 7757,
      "ĠFair": 7758,
      "Ġhadn": 7759,
      "Ġenjoyed": 7760,
      "ez": 7761,
      "Ġcoc": 7762,
      "Ġ65": 7763,
      "ĠAbout": 7764,
      "orne": 7765,
      "amsung": 7766,
      "yd": 7767,
      "Ġsanctions": 7768,
      "Ġlaid": 7769,
      "Ġpermission": 7770,
      "Ġworker": 7771,
      "Ġlegend": 7772,
      "ĠJosh": 7773,
      "ikes": 7774,
      "Ġpasses": 7775,
      "Ġmovements": 7776,
      "car": 7777,
      "ĠDisney": 7778,
      "ĠSaf": 7779,
      "Ġapolog": 7780,
      "ĠABC": 7781,
      "Ġarrange": 7782,
      "Ġwonderful": 7783,
      "ĠFred": 7784,
      "ĠKingdom": 7785,
      "away": 7786,
      "Ġunemployment": 7787,
      "Ġflaw": 7788,
      "athy": 7789,
      "ĠNBC": 7790,
      "Ġphotograph": 7791,
      "Ġdinner": 7792,
      "Pr": 7793,
      "Ġelev": 7794,
      "Ġdemocratic": 7795,
      "athered": 7796,
      "ĠHT": 7797,
      "ython": 7798,
      "rac": 7799,
      "ĠCross": 7800,
      "ĠWater": 7801,
      "Ġconvicted": 7802,
      "Ġscenario": 7803,
      "Ġcited": 7804,
      "Ġfault": 7805,
      "Ġuncom": 7806,
      "Ġassert": 7807,
      "Ġreduction": 7808,
      "Ġclubs": 7809,
      "Ġrely": 7810,
      "ĠPD": 7811,
      "Ġentering": 7812,
      "Ġinev": 7813,
      "Ġgenuine": 7814,
      "Co": 7815,
      "ĠAlbert": 7816,
      "Ġunusual": 7817,
      "79": 7818,
      "Ġtoler": 7819,
      "Ġindicate": 7820,
      "Ġlosses": 7821,
      "ni": 7822,
      "Ġretired": 7823,
      "Ġneighb": 7824,
      "Ġ43": 7825,
      "Ġrelief": 7826,
      "Before": 7827,
      "Ġsubjects": 7828,
      "86": 7829,
      "Ġpatterns": 7830,
      "Ġbrowser": 7831,
      "Ġships": 7832,
      "ĠEmp": 7833,
      "iscons": 7834,
      "ĠBaltimore": 7835,
      "oured": 7836,
      "Ġscoring": 7837,
      "Ġcable": 7838,
      "uma": 7839,
      "Ġcannabis": 7840,
      "ĠBefore": 7841,
      "Ġparticipate": 7842,
      "Ġexternal": 7843,
      "isconsin": 7844,
      "Ġdeliber": 7845,
      "Ġconvin": 7846,
      "ouver": 7847,
      "ĠJudge": 7848,
      "Ġfeelings": 7849,
      "rical": 7850,
      "Ġelectronic": 7851,
      "allel": 7852,
      "Ġho": 7853,
      "ĠESP": 7854,
      "ĠAsh": 7855,
      "Ġbehalf": 7856,
      "Ġpriority": 7857,
      "Ġcontaining": 7858,
      "Ġcounsel": 7859,
      "ĠNob": 7860,
      "ĠMcG": 7861,
      "Ġvisible": 7862,
      "Ġchallenging": 7863,
      "ĠEastern": 7864,
      "Ġspr": 7865,
      "ĠGreek": 7866,
      "interest": 7867,
      "inking": 7868,
      "Ġprinciple": 7869,
      "inder": 7870,
      "Ġrecognized": 7871,
      "ĠOregon": 7872,
      "ĠGlobal": 7873,
      "Ġbail": 7874,
      "Ġchat": 7875,
      "Meanwhile": 7876,
      "President": 7877,
      "âĢĻ,": 7878,
      "Ġbacked": 7879,
      "ĠTok": 7880,
      "Ġcomic": 7881,
      "ĠReuters": 7882,
      "bell": 7883,
      "Ġjournalist": 7884,
      "Ġeuro": 7885,
      "izon": 7886,
      "Ġremem": 7887,
      "Ġdrawing": 7888,
      "Ġhistoric": 7889,
      "Ġbasketball": 7890,
      "Ġhole": 7891,
      "eland": 7892,
      "ogether": 7893,
      "Ġdefine": 7894,
      "Ġsmooth": 7895,
      "Ġcha": 7896,
      "Ġroot": 7897,
      "Ġflash": 7898,
      "aska": 7899,
      "Ġtor": 7900,
      "ĠHom": 7901,
      "ĠVeg": 7902,
      "Ġstruggling": 7903,
      "Ġwra": 7904,
      "Ġlegs": 7905,
      "ked": 7906,
      "weet": 7907,
      "ĠMu": 7908,
      "Ġcomponent": 7909,
      "Ġunex": 7910,
      "Ġfounded": 7911,
      "ela": 7912,
      "Ġbridge": 7913,
      "Who": 7914,
      "RS": 7915,
      "etime": 7916,
      "76": 7917,
      "Ġhang": 7918,
      "ĠAvenue": 7919,
      "ulating": 7920,
      "Ġsharp": 7921,
      "Those": 7922,
      "Ġalgorith": 7923,
      "serv": 7924,
      "ounced": 7925,
      "ĠHas": 7926,
      "Ġ64": 7927,
      "sylv": 7928,
      "ĠKey": 7929,
      "Ġwarrant": 7930,
      "anna": 7931,
      "Ġgall": 7932,
      "ĠVR": 7933,
      "ba": 7934,
      "Ġscream": 7935,
      "Ġairport": 7936,
      "Ġmanufacturing": 7937,
      "Ð¾Ð": 7938,
      "fall": 7939,
      "Ġresource": 7940,
      "teen": 7941,
      "ĠLatin": 7942,
      "Ġscores": 7943,
      "Ġfarmers": 7944,
      "Ġdiscrimination": 7945,
      "Ġbegun": 7946,
      "ĠAD": 7947,
      "Ġheaded": 7948,
      "Ġhitting": 7949,
      "Ġnominee": 7950,
      "agg": 7951,
      "Ġagric": 7952,
      "Ġdestruction": 7953,
      "ystem": 7954,
      "Us": 7955,
      "ĠCore": 7956,
      "ĠConference": 7957,
      "Ġtickets": 7958,
      "Ġ1960": 7959,
      "Ġimplementation": 7960,
      "Ġtag": 7961,
      "Ġexclusive": 7962,
      "burgh": 7963,
      "ĠLuc": 7964,
      "Ġcyber": 7965,
      "ĠAle": 7966,
      "Ġalien": 7967,
      "ĠPolicy": 7968,
      "Ġaver": 7969,
      "Ġpropag": 7970,
      "Ġprocessing": 7971,
      "ĠHenry": 7972,
      "Look": 7973,
      "stract": 7974,
      "rous": 7975,
      "IF": 7976,
      "erts": 7977,
      "aying": 7978,
      "Ġinterviews": 7979,
      "ĠEp": 7980,
      "ĠPoint": 7981,
      "Ġfantasy": 7982,
      "ĠFund": 7983,
      "ĠÎ": 7984,
      "ĠAdministration": 7985,
      "Ġincent": 7986,
      "Ġ1998": 7987,
      "Ġpractical": 7988,
      "Ġindicated": 7989,
      "Ġsaved": 7990,
      "Ġplug": 7991,
      "Ġreaching": 7992,
      "Ġtackle": 7993,
      "Ġrecover": 7994,
      "Ġgained": 7995,
      "Ġspark": 7996,
      "ĠMir": 7997,
      "ancouver": 7998,
      "::": 7999,
      "eda": 8000,
      "2015": 8001,
      "ĠData": 8002,
      "ĠAcademy": 8003,
      "Ġstructures": 8004,
      "Ġbanned": 8005,
      "type": 8006,
      "mate": 8007,
      "ĠChristians": 8008,
      "Ġrepresentative": 8009,
      "ependent": 8010,
      "ĠKennedy": 8011,
      "Ġju": 8012,
      "ĠAtlanta": 8013,
      "Ġburd": 8014,
      "Ġtox": 8015,
      "umer": 8016,
      "Ġillness": 8017,
      "Ġbranch": 8018,
      "ĠSeries": 8019,
      "Ġliked": 8020,
      "ĠMoh": 8021,
      "uties": 8022,
      "Ġframework": 8023,
      "Sub": 8024,
      "etts": 8025,
      "ĠLo": 8026,
      "ĠQueen": 8027,
      "sylvania": 8028,
      "Ġasks": 8029,
      "Ġmedicine": 8030,
      "Ġpump": 8031,
      "ĠPremier": 8032,
      "ĠIT": 8033,
      "Ġdeeper": 8034,
      "Ġuniform": 8035,
      "ĠThree": 8036,
      "Ġneutral": 8037,
      "ĠPerhaps": 8038,
      "Ġconvinced": 8039,
      "mann": 8040,
      "omething": 8041,
      "ĠReview": 8042,
      "Ġbeliefs": 8043,
      "tes": 8044,
      "found": 8045,
      "profit": 8046,
      "Ġlistening": 8047,
      "err": 8048,
      "Ġcarefully": 8049,
      "Ġepisodes": 8050,
      "Ne": 8051,
      "Ġstab": 8052,
      "Ġwheel": 8053,
      "olen": 8054,
      "ĠXbox": 8055,
      "Ġproducing": 8056,
      "antic": 8057,
      "ĠLittle": 8058,
      "Ġfinger": 8059,
      "rolled": 8060,
      "ĠAmendment": 8061,
      "Ġindependence": 8062,
      "Ġnotion": 8063,
      "ĠJay": 8064,
      "Ġ41": 8065,
      "ĠPhiladelphia": 8066,
      "ĠHor": 8067,
      "Star": 8068,
      "Ġphilosophy": 8069,
      "Ġthrown": 8070,
      "Ġroles": 8071,
      "Ġcrypt": 8072,
      "ĠDivision": 8073,
      "Ġarray": 8074,
      "Ġforever": 8075,
      "Ġsuggesting": 8076,
      "Ġsamples": 8077,
      "opp": 8078,
      "RI": 8079,
      "Ġcogn": 8080,
      "Ġbarely": 8081,
      "400": 8082,
      "Ġgift": 8083,
      "ĠThus": 8084,
      "Comm": 8085,
      "imm": 8086,
      "Ġsynt": 8087,
      "ĠJac": 8088,
      "lessly": 8089,
      "Ġminds": 8090,
      "Ġrapidly": 8091,
      "Ġtail": 8092,
      "inois": 8093,
      "Ġproven": 8094,
      "Ġupset": 8095,
      "199": 8096,
      "rec": 8097,
      "ĠKir": 8098,
      "world": 8099,
      "Will": 8100,
      "heast": 8101,
      "eman": 8102,
      "usted": 8103,
      "Ġingred": 8104,
      "pread": 8105,
      "Ġscholars": 8106,
      "Ġhardly": 8107,
      "ĠDid": 8108,
      "Ġassociation": 8109,
      "ĠNext": 8110,
      "uper": 8111,
      "ĠJun": 8112,
      "Ġdescription": 8113,
      "ĠNever": 8114,
      "iary": 8115,
      "ja": 8116,
      "elect": 8117,
      "Ġtheat": 8118,
      "Ġdance": 8119,
      "mat": 8120,
      "Ġtrail": 8121,
      "Ġreducing": 8122,
      "ĠIC": 8123,
      "idespread": 8124,
      "========": 8125,
      "ilipp": 8126,
      "ĠâĤ¬": 8127,
      "ĠSat": 8128,
      "elf": 8129,
      "ĠFreedom": 8130,
      "ĠBernie": 8131,
      "SD": 8132,
      "Ġnoise": 8133,
      "Ġ47": 8134,
      "ĠRadio": 8135,
      "Ġperpet": 8136,
      "anted": 8137,
      "Ġcollapse": 8138,
      ".-": 8139,
      "ĠOK": 8140,
      "ATE": 8141,
      "Ġunclear": 8142,
      "ĠAL": 8143,
      "icket": 8144,
      "Dav": 8145,
      "pat": 8146,
      "osit": 8147,
      "'.": 8148,
      "))": 8149,
      "achus": 8150,
      "Ġutil": 8151,
      "Ġfruit": 8152,
      "ĠTri": 8153,
      "aching": 8154,
      "ĠFurther": 8155,
      "rator": 8156,
      "Ġreviews": 8157,
      "##": 8158,
      "engers": 8159,
      "then": 8160,
      "ï¿": 8161,
      "restling": 8162,
      "Sm": 8163,
      "Ġfab": 8164,
      "Ġfiction": 8165,
      "Ġcolors": 8166,
      "Ġviewers": 8167,
      "abinet": 8168,
      "lah": 8169,
      "Ġtrained": 8170,
      "log": 8171,
      "ĠPit": 8172,
      "hour": 8173,
      "owing": 8174,
      "ĠManchester": 8175,
      "Ġdevast": 8176,
      "ho": 8177,
      "Ġinject": 8178,
      "opher": 8179,
      "Ġextend": 8180,
      "Ġcomplaints": 8181,
      "ĠField": 8182,
      "Ġprogressive": 8183,
      "ĠAllen": 8184,
      "ĠOnt": 8185,
      "Ġserves": 8186,
      "Ġeastern": 8187,
      "Ġestimate": 8188,
      "ĠiOS": 8189,
      "ĠWisconsin": 8190,
      "Source": 8191,
      "Ġreven": 8192,
      "ĠHard": 8193,
      "ĠGaza": 8194,
      "Ġimplemented": 8195,
      "she": 8196,
      "ĠGov": 8197,
      "Ġedition": 8198,
      "ĠHoward": 8199,
      "aus": 8200,
      "Ġtone": 8201,
      "ĠTenn": 8202,
      "Ġcampaigns": 8203,
      "ĠIns": 8204,
      "Ġoverwhelming": 8205,
      "Ġintellectual": 8206,
      "Ġelig": 8207,
      "Ġvital": 8208,
      "Ġstupid": 8209,
      "Ġfriendly": 8210,
      "Ġexpanded": 8211,
      "Ġovert": 8212,
      "appy": 8213,
      "Ġmagn": 8214,
      "cific": 8215,
      "usive": 8216,
      "pload": 8217,
      "ĠMid": 8218,
      "ĠPennsylvania": 8219,
      "Ġexceed": 8220,
      "iversary": 8221,
      "Ġforest": 8222,
      "Ġhide": 8223,
      "umes": 8224,
      "Ġ46": 8225,
      "ĠAnthony": 8226,
      "Under": 8227,
      "ĠCall": 8228,
      "Ġmo": 8229,
      "Mc": 8230,
      "Ġmusical": 8231,
      "sels": 8232,
      "Ġcivilians": 8233,
      "85": 8234,
      "Ġinvolvement": 8235,
      "87": 8236,
      "ĠAction": 8237,
      "Ġvary": 8238,
      "pled": 8239,
      "Ġfallen": 8240,
      "Ġentertainment": 8241,
      "achusetts": 8242,
      "oen": 8243,
      "Ġhired": 8244,
      "ĠAnderson": 8245,
      "bn": 8246,
      "Ġpapers": 8247,
      "Ġinteract": 8248,
      "ĠShare": 8249,
      "ĠCook": 8250,
      "ĠHead": 8251,
      "page": 8252,
      "Ġloyal": 8253,
      "ĠMah": 8254,
      "Ġkm": 8255,
      "ATO": 8256,
      "Ġsensitive": 8257,
      "Ġshr": 8258,
      "Ġequally": 8259,
      "89": 8260,
      "ultural": 8261,
      "Ġanybody": 8262,
      "Ġimprovement": 8263,
      "Ġstrategic": 8264,
      "ĠCameron": 8265,
      "Ġgathered": 8266,
      "Ġinitiative": 8267,
      "Ġdeputy": 8268,
      "Ġwages": 8269,
      "Ġgrounds": 8270,
      "ĠMarket": 8271,
      "Ġcomprehens": 8272,
      "ĠESPN": 8273,
      "Ġhook": 8274,
      "ĠTown": 8275,
      "ĠArabia": 8276,
      "Ġ1997": 8277,
      "Ġliquid": 8278,
      "Ġjoining": 8279,
      "\".[": 8280,
      "Ġinvestigators": 8281,
      "Ġstadium": 8282,
      "Ġimprovements": 8283,
      "Ġprepare": 8284,
      "About": 8285,
      "El": 8286,
      "Ġgains": 8287,
      "Ġnormally": 8288,
      "Ġignore": 8289,
      "Ġanger": 8290,
      "Ġtechnique": 8291,
      "riers": 8292,
      "ĠMake": 8293,
      "Ġprosec": 8294,
      "Ġinvited": 8295,
      "ĠLind": 8296,
      "Ġcontribute": 8297,
      "gener": 8298,
      "Ġwidespread": 8299,
      "Ġbars": 8300,
      "ĠAdv": 8301,
      "Ġcontroversy": 8302,
      "lad": 8303,
      "enth": 8304,
      "iel": 8305,
      "Ġfeaturing": 8306,
      "ĠKat": 8307,
      "Ġaccus": 8308,
      "Ġlists": 8309,
      "Ġsteal": 8310,
      "ĠCommunity": 8311,
      "EST": 8312,
      "Ġroads": 8313,
      "ĠIraqi": 8314,
      "oval": 8315,
      "Back": 8316,
      "arrass": 8317,
      "ĠSquare": 8318,
      "Comp": 8319,
      "ĠInformation": 8320,
      "iti": 8321,
      "rient": 8322,
      "Ġrespectively": 8323,
      "ĠSir": 8324,
      "Ġconsole": 8325,
      "Ġcontained": 8326,
      "Ġtemporary": 8327,
      "ĠHit": 8328,
      "ĠMarc": 8329,
      "Ġhomeless": 8330,
      "Ġmonitor": 8331,
      "Ġbrown": 8332,
      "pa": 8333,
      "Ġsoph": 8334,
      "aka": 8335,
      "heim": 8336,
      "Ġdisrupt": 8337,
      "Ġinvent": 8338,
      "Ġdepends": 8339,
      "PP": 8340,
      "uh": 8341,
      "Ġracist": 8342,
      "Ġlobby": 8343,
      "Ġobtain": 8344,
      "Ġaffairs": 8345,
      "ĠRose": 8346,
      "Ġsugar": 8347,
      "ĠKong": 8348,
      "icking": 8349,
      "Ġhandful": 8350,
      "ĠAbb": 8351,
      "ĠMedical": 8352,
      "Ġsubstantial": 8353,
      "Ġtip": 8354,
      "Ġcorporations": 8355,
      "inf": 8356,
      "ĠGolden": 8357,
      "Ġsuspected": 8358,
      "ouch": 8359,
      "ĠVancouver": 8360,
      "SC": 8361,
      "dem": 8362,
      "ais": 8363,
      "Ġactivist": 8364,
      "Ġstatistics": 8365,
      "Where": 8366,
      "Ġsmoke": 8367,
      "Ġloans": 8368,
      "ĠFal": 8369,
      "Ġplatforms": 8370,
      "pie": 8371,
      "ĠRef": 8372,
      "umin": 8373,
      "udes": 8374,
      "Ġpurchased": 8375,
      "Ġles": 8376,
      "ĠRoy": 8377,
      "ï¿½": 8378,
      "Ġwars": 8379,
      "Ġdispl": 8380,
      "itionally": 8381,
      "Ġhumanity": 8382,
      "Ġinvestigate": 8383,
      "Ġpref": 8384,
      "case": 8385,
      "ĠEs": 8386,
      "Ġ52": 8387,
      "Ġjur": 8388,
      "Ġorigin": 8389,
      ">>": 8390,
      "Ġincidents": 8391,
      "Ġreprodu": 8392,
      "ĠMusic": 8393,
      "span": 8394,
      "ĠIllinois": 8395,
      "Ġmarks": 8396,
      "Ġdynamic": 8397,
      "reate": 8398,
      "ĠFed": 8399,
      "Ġattacking": 8400,
      "ĠBattle": 8401,
      "ĠMayor": 8402,
      "ĠIII": 8403,
      "ĠBeach": 8404,
      "Ġsuffer": 8405,
      "dit": 8406,
      "Ġpin": 8407,
      "Ġfears": 8408,
      "Ġopinions": 8409,
      "Ġenormous": 8410,
      "ĠSony": 8411,
      "phones": 8412,
      "Ġauthent": 8413,
      "ĠCheck": 8414,
      "otype": 8415,
      "ĠMinistry": 8416,
      "Ġultimate": 8417,
      "VE": 8418,
      "Ġchapter": 8419,
      "Ġinvestigating": 8420,
      "ĠAustin": 8421,
      "yles": 8422,
      "Ġtie": 8423,
      "Ġconcrete": 8424,
      "News": 8425,
      "Ġren": 8426,
      "Ġregister": 8427,
      "Script": 8428,
      "ĠRen": 8429,
      "Ġfrag": 8430,
      "ĠSeason": 8431,
      "Ġconstitutional": 8432,
      "yard": 8433,
      "oding": 8434,
      "ĠNic": 8435,
      "Ġwebsites": 8436,
      "Ġlicens": 8437,
      "--------------------------------": 8438,
      "Ġlegitimate": 8439,
      "ĠSn": 8440,
      "isting": 8441,
      "Ġvisitors": 8442,
      "ĠHD": 8443,
      "Ġconversations": 8444,
      "Ġreferring": 8445,
      "Ġcasual": 8446,
      "Ġastron": 8447,
      "Ġsymptoms": 8448,
      "geon": 8449,
      "Ġscandal": 8450,
      "ĠIce": 8451,
      "ĠSamsung": 8452,
      "Ġcareful": 8453,
      "Ġincorpor": 8454,
      "aval": 8455,
      "ĠNOT": 8456,
      "Ġrook": 8457,
      "Ġnoting": 8458,
      "Ġclothes": 8459,
      "Ġdisagree": 8460,
      "Ty": 8461,
      "walk": 8462,
      "ĠLA": 8463,
      "Ġfailing": 8464,
      "ĠBrother": 8465,
      "Ġpetition": 8466,
      "ĠSpring": 8467,
      "Ġrational": 8468,
      "Ġcontributions": 8469,
      "Ġtemperatures": 8470,
      "ĠMassachusetts": 8471,
      "iy": 8472,
      "een": 8473,
      "Ġbrill": 8474,
      "Ġbarrel": 8475,
      "Ġregulation": 8476,
      "including": 8477,
      "ĠStat": 8478,
      "Ġattached": 8479,
      "Ġhorror": 8480,
      "Ġcitizen": 8481,
      "74": 8482,
      "iences": 8483,
      "ĠBrew": 8484,
      "Ġlets": 8485,
      "Ġterrorists": 8486,
      "Note": 8487,
      "Ġclosing": 8488,
      "Ġprofits": 8489,
      "ĠMatthew": 8490,
      "Both": 8491,
      "ĠMars": 8492,
      "ĠPack": 8493,
      "Ġspoken": 8494,
      "Ġhandling": 8495,
      "Ġpromises": 8496,
      "Ġscreens": 8497,
      "Ġoffices": 8498,
      "Ġinquir": 8499,
      "Ġprotocol": 8500,
      "Ġracism": 8501,
      "Ġlayer": 8502,
      "Ġdump": 8503,
      "Ġjudges": 8504,
      "Ġcollective": 8505,
      "maker": 8506,
      "ĠNote": 8507,
      "Ġattitude": 8508,
      "Ġmining": 8509,
      "Ġsuspended": 8510,
      "Ġinnovation": 8511,
      "Ġconnections": 8512,
      "Ġsorry": 8513,
      "ĠCBS": 8514,
      "Ġlogic": 8515,
      "Ġpresum": 8516,
      "AND": 8517,
      "Ġrobot": 8518,
      "Ġthrowing": 8519,
      "Ġdiscussions": 8520,
      "Ġadvocates": 8521,
      "ivals": 8522,
      "ped": 8523,
      "uction": 8524,
      "Ġgear": 8525,
      "dri": 8526,
      "Ġviewed": 8527,
      "Ġsin": 8528,
      "Ġguarantee": 8529,
      "plete": 8530,
      "Ġconsistently": 8531,
      "Ġcovers": 8532,
      "Ġswing": 8533,
      "worth": 8534,
      "Ġ?": 8535,
      "Ġtape": 8536,
      "Ġham": 8537,
      "Ref": 8538,
      "Ġneck": 8539,
      "ĠPatri": 8540,
      "Sen": 8541,
      "ĠScient": 8542,
      "ordon": 8543,
      "Ġsettings": 8544,
      "Ste": 8545,
      "ifest": 8546,
      "Ġranked": 8547,
      "Ġpoly": 8548,
      "Ġtransactions": 8549,
      "ĠSyd": 8550,
      "Ġ1996": 8551,
      "Ġprincip": 8552,
      "ðŁ": 8553,
      "ĠFamily": 8554,
      "Ġdiscovery": 8555,
      "Ġgenetic": 8556,
      "ĠMcCain": 8557,
      "Ġtomorrow": 8558,
      "utive": 8559,
      "Ġrhet": 8560,
      "abeth": 8561,
      "ĠKansas": 8562,
      "Ġremarks": 8563,
      "Ġtransgender": 8564,
      "Ġlowest": 8565,
      "ĠGuardian": 8566,
      "Ġcos": 8567,
      "Ġthrew": 8568,
      "ione": 8569,
      "Ġpublication": 8570,
      "uits": 8571,
      "icity": 8572,
      "ĠWW": 8573,
      "Ġrecommended": 8574,
      "eding": 8575,
      "Ġamid": 8576,
      "Ġabsence": 8577,
      "ĠChair": 8578,
      "ĠDave": 8579,
      "senal": 8580,
      "Ġwine": 8581,
      "Ġraw": 8582,
      "Ġfulf": 8583,
      "Ġmad": 8584,
      "acon": 8585,
      "Ġpremium": 8586,
      "Ġwww": 8587,
      "Ġversus": 8588,
      "Ġsteel": 8589,
      "rets": 8590,
      "Ġfoss": 8591,
      "Ġshoulder": 8592,
      "Ġsurf": 8593,
      "Ġappreciate": 8594,
      "PM": 8595,
      "Ġproviders": 8596,
      "Ġattempting": 8597,
      "ĠMuseum": 8598,
      "ĠRoss": 8599,
      "Ġfactory": 8600,
      "Ġseemingly": 8601,
      "!)": 8602,
      "Ġlying": 8603,
      "62": 8604,
      "AF": 8605,
      "HT": 8606,
      "des": 8607,
      "Ġpreced": 8608,
      "rooms": 8609,
      "Ġownership": 8610,
      "ĠVegas": 8611,
      "Ġresign": 8612,
      "ictions": 8613,
      "Ġbrothers": 8614,
      "ĠColumbia": 8615,
      "iability": 8616,
      "ĠPortland": 8617,
      "Ġaddressed": 8618,
      "Ġsettlement": 8619,
      "ĠLy": 8620,
      "ĠProfessor": 8621,
      "vard": 8622,
      "Ġluck": 8623,
      "Ġmonthly": 8624,
      "Ġneighbour": 8625,
      "GO": 8626,
      "Ġdiversity": 8627,
      "mary": 8628,
      "Ġstake": 8629,
      "Ġheading": 8630,
      "leveland": 8631,
      "Related": 8632,
      "%,": 8633,
      "âĸ": 8634,
      "Ġbub": 8635,
      "Ġdrew": 8636,
      "Ġrural": 8637,
      "Ġrh": 8638,
      "Ġconspiracy": 8639,
      "atar": 8640,
      "archy": 8641,
      "Ġhorse": 8642,
      "Ġsalary": 8643,
      "ĠAnton": 8644,
      "annon": 8645,
      "Ġdomain": 8646,
      "Ġintervention": 8647,
      "Ġpeak": 8648,
      "Ġawareness": 8649,
      "watch": 8650,
      "zy": 8651,
      "mental": 8652,
      "claim": 8653,
      "Ġhypot": 8654,
      "ĠON": 8655,
      "Ġdistributed": 8656,
      "rones": 8657,
      "Ġboat": 8658,
      "ĠHistory": 8659,
      "bi": 8660,
      "ĠET": 8661,
      "conf": 8662,
      "ĠAtlantic": 8663,
      "ÂĴ": 8664,
      "Ġpersonality": 8665,
      "Ġinvolves": 8666,
      "ĠWhich": 8667,
      "Ġextraord": 8668,
      "Ġassessment": 8669,
      "Ġje": 8670,
      "Ġfunded": 8671,
      "ĠUC": 8672,
      "Ġstayed": 8673,
      "Ġvirtually": 8674,
      "Ġtweeted": 8675,
      "\")": 8676,
      "Ġcust": 8677,
      "arms": 8678,
      "Ass": 8679,
      "ĠFull": 8680,
      "ĠBry": 8681,
      "ĠHospital": 8682,
      "ĠLewis": 8683,
      "uten": 8684,
      "Ġranks": 8685,
      "Ġreads": 8686,
      "Ġchecks": 8687,
      "Ġdepression": 8688,
      "Ġinflation": 8689,
      "\":\"": 8690,
      "Ke": 8691,
      "amac": 8692,
      "Ġguest": 8693,
      "ommod": 8694,
      "Ġlocked": 8695,
      "Ġshout": 8696,
      "2016": 8697,
      "ĠSanta": 8698,
      "Part": 8699,
      "ĠBall": 8700,
      "eries": 8701,
      "ĠAst": 8702,
      "ĠMarsh": 8703,
      "Ġcomedy": 8704,
      "Ġouts": 8705,
      "Ġstudied": 8706,
      "usalem": 8707,
      "scale": 8708,
      "Ġethnic": 8709,
      "Ġtransportation": 8710,
      "ĠEngine": 8711,
      "Ġjoy": 8712,
      "Ġcopies": 8713,
      "rams": 8714,
      "Ġ1995": 8715,
      "Ġefficiency": 8716,
      "ĠMaster": 8717,
      "iban": 8718,
      "Ġdeficit": 8719,
      "ĠHarry": 8720,
      "zed": 8721,
      "ĠUlt": 8722,
      "Ġ->": 8723,
      "RL": 8724,
      "Ġovers": 8725,
      "ihad": 8726,
      "ndum": 8727,
      "ĠGetty": 8728,
      "Her": 8729,
      "Ġtries": 8730,
      "Ġembarrass": 8731,
      "Ġuniversities": 8732,
      "Ġlucky": 8733,
      "ĠConservative": 8734,
      "ĠFootball": 8735,
      "Cons": 8736,
      "Ġfighter": 8737,
      "ĠBad": 8738,
      "Ġrender": 8739,
      "Ġactors": 8740,
      "ĠPhilipp": 8741,
      "ĠPatrick": 8742,
      "Ġbehaviour": 8743,
      "Ġtea": 8744,
      "Ġhint": 8745,
      "ĠStadium": 8746,
      "Ġtouchdown": 8747,
      "izer": 8748,
      "Ġcoaches": 8749,
      "Pre": 8750,
      "ĠAND": 8751,
      "ĠIndiana": 8752,
      "Ġec": 8753,
      "wered": 8754,
      "door": 8755,
      "har": 8756,
      "Ġbacter": 8757,
      "ĠSuch": 8758,
      "Ġtestim": 8759,
      "Ġspiritual": 8760,
      "72": 8761,
      "Ġphotograp": 8762,
      "Ġauto": 8763,
      "Ġcommonly": 8764,
      "OK": 8765,
      "ĠBa": 8766,
      "2014": 8767,
      "Ġspeaks": 8768,
      "agic": 8769,
      "cut": 8770,
      "Ġdramatic": 8771,
      "Che": 8772,
      "SL": 8773,
      "Ġ(âĢľ": 8774,
      "Ġguitar": 8775,
      "ĠGreece": 8776,
      "Ġtasks": 8777,
      "itage": 8778,
      "Ġportray": 8779,
      "ĠIranian": 8780,
      "Ġceleb": 8781,
      "ĠBerlin": 8782,
      "Ġ51": 8783,
      "Ġparallel": 8784,
      "Ġfantastic": 8785,
      "olves": 8786,
      "Ġcounts": 8787,
      "Ġspokesperson": 8788,
      "Ġgam": 8789,
      "Ġnomination": 8790,
      "ĠDenver": 8791,
      "Ġ2019": 8792,
      "annels": 8793,
      "Ġrepresenting": 8794,
      "Ġmountain": 8795,
      "Ġveterans": 8796,
      "ĠHarris": 8797,
      "61": 8798,
      "itting": 8799,
      "Ġaccommod": 8800,
      "ĠIndeed": 8801,
      "ĠMarvel": 8802,
      "Ġaccomplish": 8803,
      "Ġordinary": 8804,
      "Ġdismissed": 8805,
      "ĠPot": 8806,
      "Ġrif": 8807,
      "Ġfalls": 8808,
      "lahoma": 8809,
      "low": 8810,
      "ĠBroad": 8811,
      "Ġbeauty": 8812,
      "amacare": 8813,
      "Ġmistakes": 8814,
      "ĠUnfortunately": 8815,
      "Ġmenu": 8816,
      "acket": 8817,
      "Ġrecall": 8818,
      "Ġtwenty": 8819,
      "Ġsymp": 8820,
      "Ġstone": 8821,
      "Ġjoke": 8822,
      "Ġresponses": 8823,
      "Ġspaces": 8824,
      "Ġheadquarters": 8825,
      "unicip": 8826,
      "ropri": 8827,
      "Ġrear": 8828,
      "ĠStart": 8829,
      "Ġmeasured": 8830,
      "800": 8831,
      "Ġcance": 8832,
      "Ġhealthcare": 8833,
      "Ġballot": 8834,
      "ĠControl": 8835,
      "Ġemotion": 8836,
      "Ġacquired": 8837,
      "xit": 8838,
      "ĠMexican": 8839,
      "Ġargues": 8840,
      "Ġhanded": 8841,
      "Ġmonitoring": 8842,
      "zing": 8843,
      "ĠWithout": 8844,
      "Ġsupplies": 8845,
      "Ġsubsequent": 8846,
      "ĠConnect": 8847,
      "Ġtrem": 8848,
      "only": 8849,
      "eps": 8850,
      "ĠWalker": 8851,
      "Ġinner": 8852,
      "ĠAward": 8853,
      "ĠNSA": 8854,
      "ĠStone": 8855,
      "EE": 8856,
      "Ġlegacy": 8857,
      "Ġcovering": 8858,
      "Ġdust": 8859,
      "Ġlands": 8860,
      "eters": 8861,
      "iverpool": 8862,
      "Ġconservatives": 8863,
      "ĠUse": 8864,
      "Ġpassengers": 8865,
      "Art": 8866,
      "Ġconce": 8867,
      "Ġ1994": 8868,
      "Ġshopping": 8869,
      "backs": 8870,
      "ĠSet": 8871,
      "ĠHave": 8872,
      "cover": 8873,
      "Ġcriticized": 8874,
      "Ġratio": 8875,
      "Ġraces": 8876,
      "mers": 8877,
      "unes": 8878,
      "Ġalert": 8879,
      "quest": 8880,
      "ĠBureau": 8881,
      "hesis": 8882,
      "Ġmathem": 8883,
      "Ġbreath": 8884,
      "irlf": 8885,
      "ĠRa": 8886,
      "Ġshadow": 8887,
      "Ġreader": 8888,
      "Ġacknowledged": 8889,
      "ji": 8890,
      "Ġhelpful": 8891,
      "ĠTokyo": 8892,
      "ĠCH": 8893,
      "ieties": 8894,
      "Ġabandoned": 8895,
      "Are": 8896,
      "Ġencouraged": 8897,
      "Ġrescue": 8898,
      "irlfriend": 8899,
      "ĠCapt": 8900,
      "ĠLas": 8901,
      "ormal": 8902,
      "Ġstolen": 8903,
      "oded": 8904,
      "Ġarrive": 8905,
      "Ġsilver": 8906,
      "orable": 8907,
      "Ġmoon": 8908,
      "abet": 8909,
      "Ġtransaction": 8910,
      "ĠiP": 8911,
      "Ġlegislative": 8912,
      "arre": 8913,
      "ĠRevolution": 8914,
      "Ġfro": 8915,
      "ĠAp": 8916,
      "through": 8917,
      "Ġplain": 8918,
      "mad": 8919,
      "made": 8920,
      "Ġclassified": 8921,
      "Facebook": 8922,
      "ĠBron": 8923,
      "Ġabsor": 8924,
      "div": 8925,
      "inction": 8926,
      "isa": 8927,
      "ĠAk": 8928,
      "Ġexit": 8929,
      "argo": 8930,
      "ounce": 8931,
      "ĠPlus": 8932,
      "Ġreplied": 8933,
      "ported": 8934,
      "Ġdrama": 8935,
      "Ġmarch": 8936,
      "ĠBang": 8937,
      "Ġinsisted": 8938,
      "ĠEnvironment": 8939,
      "Ġrom": 8940,
      "ĠBridge": 8941,
      "Ġrepeat": 8942,
      "Ġwedd": 8943,
      "Ġnaturally": 8944,
      "Ġprotecting": 8945,
      "dog": 8946,
      "Ġdiverse": 8947,
      "Ġrevel": 8948,
      "ika": 8949,
      "ĠDoes": 8950,
      "ĠStr": 8951,
      "Ġstriking": 8952,
      "ĠHind": 8953,
      "izabeth": 8954,
      "Ġpermit": 8955,
      "ĠYOU": 8956,
      "Ġpopulations": 8957,
      "Ġintroduction": 8958,
      "ĠAge": 8959,
      "Ġweigh": 8960,
      "theless": 8961,
      "ĠPrince": 8962,
      "yer": 8963,
      "Ġabroad": 8964,
      "ĠArk": 8965,
      "ocolate": 8966,
      "rows": 8967,
      "73": 8968,
      "Ġblast": 8969,
      "ĠTour": 8970,
      "Ġurged": 8971,
      "ALL": 8972,
      "Ġbread": 8973,
      "Ġliterature": 8974,
      "plus": 8975,
      "ught": 8976,
      "isons": 8977,
      "oga": 8978,
      "Ġdistract": 8979,
      "Ġletting": 8980,
      "Ġrequested": 8981,
      "omed": 8982,
      "ĠJerusalem": 8983,
      "dated": 8984,
      "Ġ_": 8985,
      "Ġrush": 8986,
      "ourse": 8987,
      "Ġcompare": 8988,
      "Ã±": 8989,
      "Ġdivided": 8990,
      "Ġignored": 8991,
      "ĠRoberts": 8992,
      "VD": 8993,
      "hop": 8994,
      "Ġporn": 8995,
      "enez": 8996,
      "Ġholiday": 8997,
      "ito": 8998,
      "Ġnic": 8999,
      "angel": 9000,
      "Ġimproving": 9001,
      "ĠSilver": 9002,
      "Ġunexpected": 9003,
      "ĠHo": 9004,
      "Ġapproached": 9005,
      "ĠDeb": 9006,
      "Ġscientist": 9007,
      "Ġax": 9008,
      "ĠSometimes": 9009,
      "Ġmembership": 9010,
      "Ġfestival": 9011,
      "Ġpharm": 9012,
      "Ġcapabilities": 9013,
      "ĠBra": 9014,
      "ĠExt": 9015,
      "Ġwhenever": 9016,
      "Ġyellow": 9017,
      "AY": 9018,
      "Ġgal": 9019,
      "aneously": 9020,
      "Ġmaps": 9021,
      "Ġpros": 9022,
      "ounding": 9023,
      "ĠBudd": 9024,
      "Ġemployed": 9025,
      "Ġtracking": 9026,
      "ĠGirl": 9027,
      "ĠLyn": 9028,
      "Ġsmile": 9029,
      "Ġwarn": 9030,
      "Ġproposals": 9031,
      "fund": 9032,
      "Ġcig": 9033,
      "ĠFriend": 9034,
      "Ġentr": 9035,
      "Ġbanking": 9036,
      "Ġdemonstrated": 9037,
      "Ġseg": 9038,
      "ĠIntelligence": 9039,
      "84": 9040,
      "iate": 9041,
      "ĠCleveland": 9042,
      "ĠAssembly": 9043,
      "Ġvisiting": 9044,
      "63": 9045,
      "PG": 9046,
      "ĠOlympic": 9047,
      "Russ": 9048,
      "Ġmac": 9049,
      "ĠGun": 9050,
      "Ġfur": 9051,
      "Ġjury": 9052,
      "ĠKl": 9053,
      "high": 9054,
      "sect": 9055,
      "Ġvoter": 9056,
      "Ġsubstance": 9057,
      "Ġhung": 9058,
      "ĠBelg": 9059,
      "Ġ~": 9060,
      "ĠMach": 9061,
      "Ġpresidency": 9062,
      "Ġsmell": 9063,
      "Ġsurvival": 9064,
      "Yet": 9065,
      "Your": 9066,
      "tra": 9067,
      "Ġhoped": 9068,
      "ĠWas": 9069,
      "Ġsoil": 9070,
      "ĠExec": 9071,
      "Ġbreaks": 9072,
      "***": 9073,
      "Ġobjective": 9074,
      "ĠDet": 9075,
      "ĠExpl": 9076,
      "bered": 9077,
      "held": 9078,
      "Ġproducers": 9079,
      "Ġconventional": 9080,
      "Ġconsent": 9081,
      "ĠDesign": 9082,
      "Ġfool": 9083,
      "otion": 9084,
      "Ġves": 9085,
      "Ġusage": 9086,
      "comes": 9087,
      "ĠJustin": 9088,
      "ĠGro": 9089,
      "Ġexperiments": 9090,
      "rite": 9091,
      "ammed": 9092,
      "ĠBuff": 9093,
      "Ġ2020": 9094,
      "Ġarbit": 9095,
      "Ġflags": 9096,
      "Ġmilk": 9097,
      "Ġshield": 9098,
      "aware": 9099,
      "Ġartific": 9100,
      "ĠProv": 9101,
      "Ġmaintained": 9102,
      "Ġlandscape": 9103,
      "rity": 9104,
      "omes": 9105,
      "ila": 9106,
      "ĠWH": 9107,
      "ĠEag": 9108,
      "ospitals": 9109,
      "Ġcaptain": 9110,
      "Ġexch": 9111,
      "Ġpolitically": 9112,
      "Still": 9113,
      "Ġsilence": 9114,
      "Ġsalt": 9115,
      "ington": 9116,
      "they": 9117,
      "Ġswim": 9118,
      "Ġratings": 9119,
      "Ġscope": 9120,
      "Ġanxiety": 9121,
      "Please": 9122,
      "plate": 9123,
      "Ġsoccer": 9124,
      "Ã§": 9125,
      "Ġcompe": 9126,
      "ntil": 9127,
      "Ġforecast": 9128,
      "shire": 9129,
      "Ġsavings": 9130,
      "isk": 9131,
      "Ġkeys": 9132,
      "Ġpartnership": 9133,
      "ĠSydney": 9134,
      "iano": 9135,
      "Ġdeny": 9136,
      "Ġtrigger": 9137,
      "Ġtables": 9138,
      "ĠLim": 9139,
      "Ġspokeswoman": 9140,
      "Ġwaters": 9141,
      "Ġharassment": 9142,
      "QL": 9143,
      "ĠLow": 9144,
      "keep": 9145,
      "Ġviolation": 9146,
      "Ġdub": 9147,
      "Ġabilities": 9148,
      "Ġassign": 9149,
      "ĠEmpire": 9150,
      "Ġgrade": 9151,
      "ĠCrime": 9152,
      "Ġsequence": 9153,
      "Ġfiring": 9154,
      "Ġthorough": 9155,
      "ĠAcc": 9156,
      "Ġclock": 9157,
      "Ġreliable": 9158,
      "iamond": 9159,
      "Ġreferendum": 9160,
      "Ġpoison": 9161,
      "Ġsed": 9162,
      "Ġunions": 9163,
      "Ġpersons": 9164,
      "Ġentitled": 9165,
      "Ġvirus": 9166,
      "intendo": 9167,
      "enter": 9168,
      "aga": 9169,
      "emed": 9170,
      "ĠHell": 9171,
      "Ġappearances": 9172,
      "bridge": 9173,
      "Ġpursue": 9174,
      "SI": 9175,
      "ĠTed": 9176,
      "ĠDeath": 9177,
      "Ġperforming": 9178,
      "Ġappointed": 9179,
      "jud": 9180,
      "orous": 9181,
      "ĠCost": 9182,
      "onder": 9183,
      "ĠNATO": 9184,
      "assador": 9185,
      "ĠProp": 9186,
      "Ġbrilliant": 9187,
      "repre": 9188,
      "Ġstored": 9189,
      "ĠOntario": 9190,
      "ĠMill": 9191,
      "ĠPop": 9192,
      "ĠLeft": 9193,
      "Ġrooms": 9194,
      "Ġdemanding": 9195,
      "Ġtips": 9196,
      "rock": 9197,
      "Ġquoted": 9198,
      "ijing": 9199,
      "Ġphrase": 9200,
      "Ġdates": 9201,
      "elson": 9202,
      "David": 9203,
      "roph": 9204,
      "Ġspots": 9205,
      "Ġhyper": 9206,
      "ĠOakland": 9207,
      "ĠOrig": 9208,
      "ĠSix": 9209,
      "Ġ53": 9210,
      "Ġdifferently": 9211,
      "Ġclinical": 9212,
      "lla": 9213,
      "ouri": 9214,
      "Ġwaves": 9215,
      "ĠAud": 9216,
      "Ġclar": 9217,
      "afe": 9218,
      "Ġloop": 9219,
      "ĠCorpor": 9220,
      "Ġsatellite": 9221,
      "reprene": 9222,
      "Â°": 9223,
      "Ġgrid": 9224,
      "Ġoverseas": 9225,
      "apes": 9226,
      "aved": 9227,
      "ĠObamacare": 9228,
      "Ġreplacement": 9229,
      "Ġmos": 9230,
      "Ġconsensus": 9231,
[...]
